#pragma once
#include <cstdint>

alignas(16) const unsigned char mnist_cnn_int8_model[] = {
  0x20, 0x00, 0x00, 0x00, 0x54, 0x46, 0x4c, 0x33, 0x00, 0x00, 0x00, 0x00,
  0x14, 0x00, 0x20, 0x00, 0x1c, 0x00, 0x18, 0x00, 0x14, 0x00, 0x10, 0x00,
  0x0c, 0x00, 0x00, 0x00, 0x08, 0x00, 0x04, 0x00, 0x14, 0x00, 0x00, 0x00,
  0x1c, 0x00, 0x00, 0x00, 0x8c, 0x00, 0x00, 0x00, 0x0c, 0x01, 0x00, 0x00,
  0xb4, 0x3b, 0x00, 0x00, 0xc4, 0x3b, 0x00, 0x00, 0xcc, 0x4d, 0x00, 0x00,
  0x03, 0x00, 0x00, 0x00, 0x01, 0x00, 0x00, 0x00, 0x04, 0x00, 0x00, 0x00,
  0x42, 0xc3, 0xff, 0xff, 0x0c, 0x00, 0x00, 0x00, 0x1c, 0x00, 0x00, 0x00,
  0x3c, 0x00, 0x00, 0x00, 0x0f, 0x00, 0x00, 0x00, 0x73, 0x65, 0x72, 0x76,
  0x69, 0x6e, 0x67, 0x5f, 0x64, 0x65, 0x66, 0x61, 0x75, 0x6c, 0x74, 0x00,
  0x01, 0x00, 0x00, 0x00, 0x04, 0x00, 0x00, 0x00, 0x68, 0xff, 0xff, 0xff,
  0x11, 0x00, 0x00, 0x00, 0x04, 0x00, 0x00, 0x00, 0x08, 0x00, 0x00, 0x00,
  0x6f, 0x75, 0x74, 0x70, 0x75, 0x74, 0x5f, 0x30, 0x00, 0x00, 0x00, 0x00,
  0x01, 0x00, 0x00, 0x00, 0x04, 0x00, 0x00, 0x00, 0x26, 0xc4, 0xff, 0xff,
  0x04, 0x00, 0x00, 0x00, 0x0c, 0x00, 0x00, 0x00, 0x6b, 0x65, 0x72, 0x61,
  0x73, 0x5f, 0x74, 0x65, 0x6e, 0x73, 0x6f, 0x72, 0x00, 0x00, 0x00, 0x00,
  0x03, 0x00, 0x00, 0x00, 0x5c, 0x00, 0x00, 0x00, 0x2c, 0x00, 0x00, 0x00,
  0x04, 0x00, 0x00, 0x00, 0xb8, 0xff, 0xff, 0xff, 0x15, 0x00, 0x00, 0x00,
  0x04, 0x00, 0x00, 0x00, 0x13, 0x00, 0x00, 0x00, 0x43, 0x4f, 0x4e, 0x56,
  0x45, 0x52, 0x53, 0x49, 0x4f, 0x4e, 0x5f, 0x4d, 0x45, 0x54, 0x41, 0x44,
  0x41, 0x54, 0x41, 0x00, 0xdc, 0xff, 0xff, 0xff, 0x14, 0x00, 0x00, 0x00,
  0x04, 0x00, 0x00, 0x00, 0x13, 0x00, 0x00, 0x00, 0x6d, 0x69, 0x6e, 0x5f,
  0x72, 0x75, 0x6e, 0x74, 0x69, 0x6d, 0x65, 0x5f, 0x76, 0x65, 0x72, 0x73,
  0x69, 0x6f, 0x6e, 0x00, 0x08, 0x00, 0x0c, 0x00, 0x08, 0x00, 0x04, 0x00,
  0x08, 0x00, 0x00, 0x00, 0x13, 0x00, 0x00, 0x00, 0x04, 0x00, 0x00, 0x00,
  0x13, 0x00, 0x00, 0x00, 0x6d, 0x69, 0x6e, 0x5f, 0x72, 0x75, 0x6e, 0x74,
  0x69, 0x6d, 0x65, 0x5f, 0x76, 0x65, 0x72, 0x73, 0x69, 0x6f, 0x6e, 0x00,
  0x16, 0x00, 0x00, 0x00, 0xa4, 0x3a, 0x00, 0x00, 0x9c, 0x3a, 0x00, 0x00,
  0x84, 0x3a, 0x00, 0x00, 0x4c, 0x3a, 0x00, 0x00, 0xfc, 0x38, 0x00, 0x00,
  0x6c, 0x38, 0x00, 0x00, 0x5c, 0x06, 0x00, 0x00, 0x0c, 0x06, 0x00, 0x00,
  0x7c, 0x01, 0x00, 0x00, 0x4c, 0x01, 0x00, 0x00, 0xf4, 0x00, 0x00, 0x00,
  0xec, 0x00, 0x00, 0x00, 0xe4, 0x00, 0x00, 0x00, 0xdc, 0x00, 0x00, 0x00,
  0xd4, 0x00, 0x00, 0x00, 0xcc, 0x00, 0x00, 0x00, 0xc4, 0x00, 0x00, 0x00,
  0xbc, 0x00, 0x00, 0x00, 0xb4, 0x00, 0x00, 0x00, 0x94, 0x00, 0x00, 0x00,
  0x74, 0x00, 0x00, 0x00, 0x04, 0x00, 0x00, 0x00, 0x22, 0xc5, 0xff, 0xff,
  0x04, 0x00, 0x00, 0x00, 0x60, 0x00, 0x00, 0x00, 0x0c, 0x00, 0x00, 0x00,
  0x08, 0x00, 0x0e, 0x00, 0x08, 0x00, 0x04, 0x00, 0x08, 0x00, 0x00, 0x00,
  0x10, 0x00, 0x00, 0x00, 0x28, 0x00, 0x00, 0x00, 0x00, 0x00, 0x06, 0x00,
  0x08, 0x00, 0x04, 0x00, 0x06, 0x00, 0x00, 0x00, 0x04, 0x00, 0x00, 0x00,
  0x01, 0x00, 0x00, 0x00, 0xeb, 0x03, 0x00, 0x00, 0x0c, 0x00, 0x18, 0x00,
  0x14, 0x00, 0x10, 0x00, 0x0c, 0x00, 0x04, 0x00, 0x0c, 0x00, 0x00, 0x00,
  0x1c, 0x61, 0x43, 0xd1, 0xe0, 0xaf, 0x7c, 0xd0, 0x02, 0x00, 0x00, 0x00,
  0x02, 0x00, 0x00, 0x00, 0x04, 0x00, 0x00, 0x00, 0x06, 0x00, 0x00, 0x00,
  0x32, 0x2e, 0x31, 0x39, 0x2e, 0x30, 0x00, 0x00, 0x8e, 0xc5, 0xff, 0xff,
  0x04, 0x00, 0x00, 0x00, 0x10, 0x00, 0x00, 0x00, 0x00, 0x00, 0x00, 0x00,
  0x00, 0x00, 0x00, 0x00, 0x00, 0x00, 0x00, 0x00, 0x00, 0x00, 0x00, 0x00,
  0xaa, 0xc5, 0xff, 0xff, 0x04, 0x00, 0x00, 0x00, 0x10, 0x00, 0x00, 0x00,
  0x31, 0x2e, 0x31, 0x34, 0x2e, 0x30, 0x00, 0x00, 0x00, 0x00, 0x00, 0x00,
  0x00, 0x00, 0x00, 0x00, 0x0c, 0xb5, 0xff, 0xff, 0x10, 0xb5, 0xff, 0xff,
  0x14, 0xb5, 0xff, 0xff, 0x18, 0xb5, 0xff, 0xff, 0x1c, 0xb5, 0xff, 0xff,
  0x20, 0xb5, 0xff, 0xff, 0x24, 0xb5, 0xff, 0xff, 0x28, 0xb5, 0xff, 0xff,
  0xe6, 0xc5, 0xff, 0xff, 0x04, 0x00, 0x00, 0x00, 0x48, 0x00, 0x00, 0x00,
  0x03, 0x6e, 0xbc, 0x31, 0x3d, 0x81, 0x63, 0x09, 0xbd, 0xd6, 0xf1, 0x6f,
  0xd8, 0xef, 0x7f, 0xdb, 0x46, 0x37, 0xec, 0x7f, 0x45, 0x7b, 0x7e, 0x33,
  0x18, 0x5c, 0x34, 0x36, 0x23, 0x3f, 0x03, 0x4f, 0x7f, 0xbe, 0x02, 0xed,
  0x06, 0xfe, 0xd3, 0x10, 0x42, 0x3b, 0x7f, 0x7f, 0xf2, 0xf5, 0x84, 0xd9,
  0xeb, 0xda, 0xe2, 0xc7, 0xfd, 0x81, 0x56, 0x3a, 0x7f, 0x6a, 0x3a, 0x4e,
  0xf6, 0x7e, 0x1b, 0x21, 0xd9, 0xdb, 0xf7, 0x75, 0x00, 0x7f, 0x3a, 0x62,
  0x3a, 0xc6, 0xff, 0xff, 0x04, 0x00, 0x00, 0x00, 0x20, 0x00, 0x00, 0x00,
  0xc0, 0xe7, 0xff, 0xff, 0x8b, 0xec, 0xff, 0xff, 0x96, 0xfe, 0xff, 0xff,
  0x83, 0x03, 0x00, 0x00, 0xad, 0xff, 0xff, 0xff, 0x00, 0x00, 0x00, 0x00,
  0xb8, 0xff, 0xff, 0xff, 0x65, 0xff, 0xff, 0xff, 0x66, 0xc6, 0xff, 0xff,
  0x04, 0x00, 0x00, 0x00, 0x80, 0x04, 0x00, 0x00, 0x43, 0x32, 0x3e, 0x27,
  0x23, 0xe6, 0x2f, 0x0c, 0x70, 0x1e, 0x2e, 0xe4, 0xf1, 0x03, 0xee, 0x0b,
  0x7f, 0xf0, 0xd7, 0xd5, 0xe3, 0x22, 0xcd, 0xda, 0x2c, 0xf3, 0x1e, 0x27,
  0x20, 0xfe, 0x03, 0x2b, 0x63, 0x1e, 0xfc, 0xc8, 0x22, 0xfe, 0x3e, 0x11,
  0x3a, 0xb4, 0xbc, 0xd5, 0x0e, 0x22, 0xc2, 0x05, 0xde, 0x42, 0xdd, 0x1c,
  0xe4, 0x2c, 0x31, 0x29, 0x2f, 0x07, 0x46, 0x46, 0x39, 0xd2, 0xec, 0x35,
  0x4c, 0xe4, 0x12, 0xfd, 0xfd, 0x08, 0xdd, 0x18, 0x61, 0x2e, 0x2b, 0x08,
  0xef, 0xef, 0x21, 0x00, 0x7f, 0x03, 0x01, 0xfa, 0x0c, 0x06, 0xed, 0x01,
  0x3e, 0xd8, 0x02, 0xc7, 0xd7, 0x04, 0xda, 0xd7, 0x28, 0xf1, 0x25, 0xe8,
  0x2b, 0x0e, 0x09, 0x07, 0xcf, 0x27, 0xfd, 0x06, 0x13, 0x0e, 0x25, 0x2b,
  0xff, 0xd7, 0x03, 0xe1, 0xe8, 0xf9, 0x22, 0xed, 0xd0, 0x00, 0x1a, 0x39,
  0xff, 0xd4, 0x02, 0xdc, 0xce, 0x18, 0x15, 0x4f, 0xf9, 0xec, 0x09, 0xde,
  0x0e, 0x42, 0x10, 0xfb, 0x17, 0xee, 0x31, 0x3a, 0x0a, 0xee, 0xe0, 0x17,
  0x32, 0xc0, 0xb6, 0x00, 0xc8, 0xd7, 0xe9, 0x0e, 0xf6, 0xd1, 0xd4, 0xa0,
  0xd5, 0x95, 0x98, 0xb1, 0x07, 0xec, 0x81, 0x40, 0x7c, 0x98, 0xe8, 0xf9,
  0x42, 0xf9, 0xb9, 0x43, 0xaa, 0x0b, 0xc8, 0x19, 0x45, 0xc7, 0xcd, 0x51,
  0xda, 0x47, 0x40, 0x4e, 0x51, 0x2d, 0x21, 0x52, 0x1e, 0x15, 0x29, 0x12,
  0x5f, 0x07, 0x16, 0x3e, 0x65, 0x2f, 0xfe, 0x16, 0x7b, 0x30, 0xe7, 0x45,
  0x4a, 0x10, 0x17, 0x50, 0x02, 0xea, 0xe6, 0xc5, 0x66, 0x0f, 0xaa, 0xe0,
  0x21, 0xf5, 0xa5, 0x98, 0x03, 0x17, 0x96, 0x0f, 0xc9, 0x0c, 0xce, 0xee,
  0xd3, 0x6b, 0x6b, 0x0a, 0x09, 0xdc, 0xbd, 0x02, 0xa1, 0x4e, 0x81, 0xd2,
  0xea, 0x2c, 0x23, 0xd8, 0x04, 0x6f, 0xc8, 0xd1, 0xeb, 0x20, 0x4e, 0x3b,
  0xfe, 0x6b, 0x6b, 0xfe, 0xe6, 0xc1, 0x3d, 0x2c, 0xe8, 0x71, 0x30, 0x0a,
  0x53, 0xb2, 0x35, 0xe6, 0x41, 0x0b, 0x52, 0x55, 0x01, 0x24, 0x12, 0xd6,
  0xe3, 0x08, 0x35, 0x05, 0x13, 0xe5, 0x0b, 0x71, 0x4c, 0xe5, 0xde, 0xf2,
  0x4f, 0xc2, 0xfd, 0xee, 0xef, 0x05, 0xee, 0xf3, 0x16, 0x2c, 0xb6, 0xe9,
  0x1e, 0xfc, 0xb5, 0xea, 0xf8, 0x36, 0xc1, 0x96, 0x78, 0x0d, 0x26, 0x0b,
  0x51, 0x2d, 0x11, 0x3c, 0x36, 0x81, 0xc4, 0xbc, 0x32, 0xd9, 0x18, 0xbd,
  0xcc, 0x24, 0xf0, 0x29, 0xd4, 0x36, 0xd1, 0x13, 0x62, 0x10, 0x2b, 0x09,
  0x3d, 0x29, 0x4a, 0x41, 0x56, 0xc3, 0xff, 0xaa, 0x31, 0xee, 0xd7, 0x35,
  0x4e, 0x09, 0x3a, 0xcc, 0x19, 0x29, 0xe0, 0xea, 0xf6, 0xe4, 0xad, 0xb1,
  0x01, 0x17, 0xc2, 0xf9, 0xba, 0xa4, 0x9d, 0x81, 0x0d, 0xd1, 0xc6, 0xc8,
  0xc8, 0xab, 0xad, 0xbd, 0xc5, 0x06, 0x89, 0xc7, 0xee, 0xe4, 0x46, 0x3c,
  0x2e, 0x33, 0x34, 0x19, 0xd7, 0xfb, 0x4b, 0x37, 0x3f, 0x1d, 0x04, 0x42,
  0xdc, 0xda, 0xe7, 0x24, 0x59, 0xdc, 0x43, 0x3a, 0xf1, 0xe7, 0x2d, 0xf9,
  0xee, 0xd6, 0x4f, 0x40, 0xa1, 0x16, 0xf2, 0x6d, 0xf9, 0x11, 0x2b, 0x3c,
  0xcc, 0xfd, 0x25, 0x64, 0x50, 0x27, 0x07, 0x1b, 0x30, 0xd3, 0x03, 0xee,
  0xe6, 0x1c, 0xf6, 0x18, 0x22, 0x07, 0xbc, 0xff, 0x03, 0x10, 0xba, 0xd3,
  0xfa, 0x00, 0xfa, 0x16, 0xd0, 0x27, 0x13, 0xea, 0x09, 0xf1, 0xee, 0x29,
  0x4d, 0xff, 0xdf, 0x3e, 0x24, 0xbb, 0x0c, 0xc6, 0x2f, 0xe4, 0xc2, 0x2c,
  0x1f, 0xac, 0xb7, 0x81, 0x0f, 0x03, 0x96, 0x1e, 0xee, 0x3e, 0x3b, 0x58,
  0xed, 0x1a, 0xf2, 0x0f, 0x03, 0x13, 0xf6, 0x61, 0x26, 0xe9, 0x0c, 0x4c,
  0x00, 0xe9, 0x48, 0x20, 0x4d, 0x19, 0x39, 0x21, 0x01, 0xc0, 0xf8, 0xc9,
  0xda, 0xe1, 0xa1, 0xab, 0xaa, 0xb0, 0xce, 0xa2, 0xab, 0x08, 0x8e, 0xe7,
  0xfb, 0x7f, 0x15, 0x54, 0x46, 0xe7, 0x0a, 0x45, 0x4b, 0xe0, 0xc5, 0x9a,
  0xeb, 0xf3, 0xb2, 0x0e, 0xb4, 0x2e, 0xd7, 0x22, 0xb4, 0x1c, 0xe2, 0xee,
  0x1f, 0x58, 0x34, 0x58, 0x2c, 0x1e, 0x58, 0x26, 0x06, 0xf6, 0xc6, 0xd1,
  0xc3, 0xd4, 0xe0, 0xaf, 0x17, 0x4c, 0x3d, 0x29, 0xfc, 0x03, 0x49, 0x09,
  0x4d, 0x1b, 0x08, 0xff, 0x59, 0x0d, 0x43, 0x06, 0xf7, 0x60, 0x17, 0x00,
  0x37, 0xc4, 0x3f, 0x4c, 0x79, 0x34, 0xfd, 0xf7, 0x3b, 0xca, 0x44, 0x29,
  0x26, 0x01, 0xe2, 0xbf, 0xe8, 0x31, 0x2f, 0xdd, 0x33, 0x11, 0x57, 0x08,
  0x3e, 0xed, 0x2f, 0x04, 0x25, 0x1c, 0xfa, 0xdd, 0xcb, 0xff, 0xbf, 0x1c,
  0xe2, 0xb7, 0xf6, 0xfc, 0xb0, 0x16, 0xdd, 0xfb, 0x6b, 0x36, 0x38, 0xd4,
  0x64, 0x30, 0x2a, 0x27, 0x38, 0xba, 0xc8, 0xd6, 0xec, 0xf9, 0x03, 0xf7,
  0x9e, 0xec, 0x8d, 0xfe, 0x81, 0xe4, 0x94, 0x8b, 0x8d, 0x22, 0x3f, 0x0b,
  0xab, 0x38, 0x11, 0xec, 0x39, 0x7f, 0xfb, 0x15, 0x14, 0x14, 0x22, 0x35,
  0x49, 0x5f, 0x1a, 0x29, 0xe2, 0xa4, 0x36, 0x60, 0x6d, 0x60, 0xe2, 0x13,
  0xf8, 0xf4, 0xe3, 0x01, 0xfb, 0xcd, 0x09, 0xd2, 0xde, 0xbe, 0xfd, 0x3e,
  0x0a, 0xf0, 0x08, 0xd6, 0x09, 0x10, 0x44, 0xf2, 0x46, 0x30, 0x3d, 0xf8,
  0x22, 0xb0, 0x64, 0xfa, 0xc7, 0xbe, 0x18, 0xd2, 0xbb, 0xdb, 0x08, 0x1f,
  0xd8, 0x9a, 0xfa, 0x33, 0x26, 0xc9, 0x40, 0x95, 0x39, 0x42, 0x42, 0xfd,
  0x53, 0x1b, 0x46, 0x43, 0x0d, 0x4a, 0x0a, 0x51, 0x1a, 0xd8, 0x1c, 0x28,
  0x27, 0x2b, 0x0a, 0x4d, 0x5a, 0x2d, 0x5c, 0xfc, 0xc2, 0xf8, 0x1a, 0x25,
  0xdd, 0x04, 0x47, 0x1a, 0x1d, 0x16, 0x11, 0x2a, 0x04, 0x31, 0x4e, 0xf7,
  0x03, 0xb6, 0xd4, 0x9e, 0x81, 0xfa, 0xc1, 0xe0, 0xbc, 0xbb, 0xa7, 0xd7,
  0xa2, 0xf5, 0xd3, 0xa4, 0xd4, 0xb8, 0x92, 0xd3, 0xa0, 0xd6, 0xb1, 0x93,
  0x91, 0x2f, 0xa8, 0x9f, 0x08, 0x01, 0xa5, 0xfd, 0x8c, 0xe1, 0x97, 0xd7,
  0x8c, 0x16, 0x8a, 0xbe, 0x05, 0x1f, 0x0b, 0xf8, 0x0b, 0xdf, 0x0d, 0x16,
  0x6f, 0x66, 0x30, 0xfe, 0x42, 0x01, 0xf2, 0x40, 0x16, 0x20, 0x2d, 0x00,
  0x00, 0xe7, 0x23, 0xe1, 0x48, 0x4a, 0xe6, 0x07, 0x44, 0x31, 0x4e, 0x11,
  0x7f, 0xc6, 0x47, 0xd3, 0xf7, 0x15, 0xe3, 0xf6, 0x43, 0x32, 0x41, 0xb1,
  0x11, 0xd7, 0x3d, 0x3e, 0x2c, 0x11, 0x48, 0xa6, 0xdc, 0xf0, 0xfa, 0x22,
  0x54, 0xea, 0xe3, 0xd4, 0x05, 0x23, 0xf7, 0x2c, 0x3a, 0xfd, 0xd0, 0xe6,
  0x20, 0x26, 0xb6, 0x22, 0xf0, 0x11, 0xf7, 0xcc, 0x4a, 0xec, 0x07, 0x33,
  0x07, 0x10, 0x21, 0xe3, 0xf6, 0x02, 0xe8, 0x10, 0x1f, 0xe1, 0x39, 0x71,
  0x1c, 0xea, 0x4b, 0x50, 0x0f, 0x15, 0x4c, 0x4f, 0x39, 0xf9, 0x28, 0x1e,
  0x81, 0x2b, 0x34, 0x32, 0x23, 0xf7, 0x14, 0x1d, 0xed, 0xd5, 0xc4, 0xf3,
  0x86, 0xed, 0xb2, 0xcf, 0xc9, 0x0b, 0xbf, 0x33, 0xb2, 0x29, 0xf3, 0xbb,
  0xb5, 0x1f, 0xe3, 0x19, 0xe8, 0x25, 0x16, 0xcd, 0xde, 0x16, 0x30, 0x45,
  0xfe, 0x1a, 0x39, 0x41, 0x58, 0x1b, 0x4a, 0x18, 0x41, 0xeb, 0x0a, 0xec,
  0x38, 0xd0, 0x95, 0x9e, 0xf8, 0x2b, 0xb2, 0xb8, 0x16, 0x5a, 0x1f, 0x24,
  0x14, 0x03, 0x04, 0x07, 0x7f, 0xb5, 0x1d, 0xbe, 0x41, 0xdb, 0xf8, 0x30,
  0xd5, 0x29, 0xa4, 0xd5, 0xd4, 0xf0, 0xc2, 0x04, 0x20, 0x2c, 0x33, 0x20,
  0x45, 0xd5, 0x50, 0xef, 0x6b, 0xba, 0xde, 0x97, 0x1f, 0x14, 0xe9, 0xdd,
  0xae, 0xf6, 0xce, 0xe3, 0x10, 0xf9, 0x04, 0xf8, 0xf5, 0x38, 0x20, 0x06,
  0x43, 0xf6, 0x43, 0x38, 0xe2, 0x29, 0x27, 0x52, 0xc8, 0xed, 0x42, 0x11,
  0x81, 0x07, 0x28, 0x11, 0xfe, 0x41, 0x3d, 0x3c, 0xfa, 0x00, 0x20, 0xd3,
  0xf7, 0x2c, 0xf3, 0xfd, 0xa4, 0xfc, 0x33, 0xef, 0x0a, 0x03, 0x02, 0x00,
  0xab, 0xea, 0xc7, 0x1e, 0xb2, 0xc2, 0xee, 0xa7, 0xc0, 0xf0, 0x00, 0x17,
  0x19, 0xe6, 0x3e, 0x0c, 0xb9, 0x11, 0x1e, 0xfb, 0xf0, 0x16, 0xbd, 0xfb,
  0xd6, 0xec, 0xc9, 0xea, 0xfa, 0xc2, 0xa4, 0xbc, 0xd0, 0x22, 0x46, 0x14,
  0x34, 0xe5, 0x06, 0x1b, 0xe2, 0x2d, 0x15, 0x63, 0x56, 0xf9, 0x28, 0x36,
  0xbf, 0x2c, 0x5c, 0x0c, 0x18, 0xcb, 0x53, 0x63, 0xb1, 0xdf, 0xfb, 0xf2,
  0x81, 0x11, 0x26, 0xe5, 0xb0, 0x20, 0xf2, 0x24, 0xdd, 0xe0, 0x15, 0x0a,
  0xa9, 0xfa, 0x15, 0x2a, 0x0e, 0xd1, 0x52, 0x12, 0xb3, 0x02, 0x83, 0xe8,
  0x93, 0xdf, 0x92, 0x97, 0xf9, 0x19, 0xca, 0xcf, 0xcc, 0xdd, 0xd2, 0xd2,
  0xf0, 0xd5, 0xca, 0xdd, 0xc1, 0x08, 0xf4, 0xbf, 0xf2, 0xca, 0xff, 0xff,
  0x04, 0x00, 0x00, 0x00, 0x40, 0x00, 0x00, 0x00, 0xf9, 0xf3, 0xff, 0xff,
  0xc2, 0xf8, 0xff, 0xff, 0x48, 0x06, 0x00, 0x00, 0x6d, 0xf5, 0xff, 0xff,
  0xb4, 0xfc, 0xff, 0xff, 0x26, 0x02, 0x00, 0x00, 0xb0, 0xff, 0xff, 0xff,
  0x41, 0xfd, 0xff, 0xff, 0x76, 0xf0, 0xff, 0xff, 0x1f, 0xf1, 0xff, 0xff,
  0x2b, 0x0a, 0x00, 0x00, 0x0c, 0xeb, 0xff, 0xff, 0xab, 0xfe, 0xff, 0xff,
  0x81, 0xf4, 0xff, 0xff, 0x3b, 0xf0, 0xff, 0xff, 0xea, 0x05, 0x00, 0x00,
  0x3e, 0xcb, 0xff, 0xff, 0x04, 0x00, 0x00, 0x00, 0x00, 0x32, 0x00, 0x00,
  0x1f, 0xeb, 0x0b, 0x2e, 0xf9, 0x12, 0xf5, 0x1a, 0x31, 0x18, 0xf5, 0xda,
  0x07, 0x1b, 0xce, 0xfa, 0x23, 0x20, 0x0a, 0x2e, 0xf7, 0x14, 0x08, 0xf6,
  0x2d, 0x36, 0xda, 0xf6, 0x27, 0x56, 0xf0, 0xfc, 0xea, 0x0c, 0x12, 0x1d,
  0xdf, 0xdb, 0xfb, 0xeb, 0xdf, 0xff, 0x34, 0x22, 0xcd, 0xcc, 0x09, 0xfc,
  0x10, 0x20, 0x00, 0xf9, 0xc7, 0x1a, 0xf6, 0x33, 0xf1, 0x21, 0x48, 0xff,
  0xde, 0xe1, 0xe2, 0xcf, 0x20, 0x10, 0x25, 0x09, 0x03, 0x1d, 0xfd, 0x52,
  0x0b, 0x0e, 0x5f, 0x00, 0x1a, 0x21, 0xdf, 0x00, 0x15, 0xfd, 0xfc, 0xdd,
  0x41, 0xe5, 0xe8, 0x10, 0xfb, 0xfc, 0xd6, 0xd4, 0x00, 0xe2, 0xe1, 0x0b,
  0x1b, 0x28, 0xcc, 0x02, 0x53, 0x06, 0x20, 0xf1, 0x0b, 0x12, 0xef, 0xe9,
  0x0e, 0xf9, 0xea, 0xf0, 0xeb, 0xe1, 0x12, 0x0e, 0xd9, 0x2f, 0x29, 0xe0,
  0x22, 0x2a, 0xb8, 0x1c, 0xe9, 0x05, 0x1a, 0xd4, 0xd5, 0x1e, 0x0e, 0x26,
  0xe0, 0x34, 0xf3, 0xb2, 0x2f, 0xed, 0x0a, 0xfb, 0x1a, 0xd7, 0xfc, 0x05,
  0xcc, 0x29, 0x0f, 0x31, 0xeb, 0x3e, 0x11, 0x23, 0xe7, 0xfd, 0x7f, 0x13,
  0x1f, 0xdf, 0x17, 0xff, 0x0c, 0xfc, 0x06, 0x12, 0xfd, 0xde, 0x05, 0xdb,
  0xdb, 0xf5, 0x09, 0xc2, 0x01, 0xca, 0x13, 0x11, 0x1b, 0x1f, 0x25, 0xf9,
  0x1b, 0xf3, 0xfb, 0x07, 0xfb, 0xf4, 0xfe, 0x1d, 0x1f, 0x09, 0xe7, 0x23,
  0x14, 0xee, 0xd2, 0xd2, 0x1e, 0xf6, 0x09, 0x24, 0x2a, 0x1a, 0x21, 0x26,
  0xe7, 0x03, 0x2f, 0xdd, 0x0a, 0x1c, 0xf4, 0xd9, 0x27, 0x2b, 0x24, 0xd4,
  0x05, 0xf8, 0x24, 0xc4, 0x2c, 0xea, 0x1b, 0x40, 0x03, 0xec, 0x34, 0xc7,
  0x04, 0x33, 0x1e, 0xa2, 0xbd, 0xf8, 0xd4, 0xc4, 0x29, 0xf3, 0xff, 0x41,
  0xf3, 0xe5, 0x2b, 0xf8, 0xe1, 0x36, 0x23, 0x05, 0x15, 0xef, 0x42, 0xec,
  0xe2, 0x04, 0xdf, 0x08, 0x24, 0xec, 0xf2, 0xf5, 0x0e, 0xf6, 0xf9, 0x30,
  0x32, 0xfd, 0x19, 0xf5, 0x26, 0x3b, 0x05, 0xf5, 0x1b, 0x0b, 0xf7, 0xef,
  0xfe, 0xc9, 0xfc, 0x11, 0xeb, 0x1d, 0xc5, 0x1e, 0xd0, 0x30, 0x0e, 0xf0,
  0xf9, 0x0b, 0xef, 0xd3, 0x01, 0x02, 0x2c, 0x1c, 0xc6, 0xe4, 0x02, 0xf4,
  0xd3, 0x0c, 0xc5, 0xd9, 0x21, 0xef, 0x04, 0xd7, 0x0c, 0xee, 0x31, 0x02,
  0xe8, 0x03, 0xaf, 0x07, 0xf7, 0x26, 0xf7, 0xe1, 0x06, 0xf2, 0xef, 0x14,
  0xd0, 0x0c, 0xd9, 0x0c, 0xe6, 0xf0, 0x22, 0x1b, 0xfd, 0x13, 0x1f, 0xe8,
  0x1a, 0xe9, 0xdd, 0x03, 0x1c, 0xd2, 0x03, 0xf4, 0xcc, 0xdc, 0xd5, 0xea,
  0x25, 0x23, 0xf1, 0xea, 0xf8, 0x16, 0x09, 0x1c, 0xe3, 0xe9, 0x32, 0x03,
  0xef, 0x16, 0xf2, 0xf7, 0xec, 0xfd, 0x0d, 0x13, 0xf2, 0x1d, 0x3c, 0x00,
  0x08, 0xee, 0xf0, 0x30, 0xf6, 0x10, 0xec, 0x0a, 0xe7, 0x19, 0xfd, 0xb3,
  0xf4, 0xff, 0xc8, 0x33, 0xf7, 0xaf, 0xd3, 0x45, 0x27, 0x07, 0x30, 0x1d,
  0xd8, 0x0d, 0xec, 0xe0, 0xea, 0xe0, 0x47, 0xc1, 0x31, 0x4d, 0xc7, 0xc2,
  0x11, 0xb8, 0x1e, 0x31, 0x39, 0x4a, 0xc0, 0xc3, 0x9e, 0xea, 0x9d, 0x11,
  0xc1, 0xcf, 0xda, 0xfe, 0x46, 0xa8, 0xf7, 0xaa, 0x8a, 0xc4, 0xe6, 0xa8,
  0xef, 0xf4, 0xdc, 0x92, 0xe0, 0x26, 0x9b, 0x49, 0x12, 0xcd, 0xf4, 0x46,
  0x1f, 0x50, 0xd1, 0xb4, 0x88, 0xfd, 0xb5, 0x40, 0xae, 0x25, 0x2e, 0x3e,
  0xa0, 0xa1, 0x23, 0xe8, 0xa5, 0x36, 0x30, 0x02, 0xff, 0xe1, 0x93, 0xe7,
  0xaa, 0xed, 0x37, 0xb9, 0xf3, 0x2a, 0x4a, 0x3c, 0xbc, 0x2e, 0x34, 0xb7,
  0xc8, 0xe5, 0xe7, 0x47, 0xf8, 0x2a, 0xe4, 0xad, 0xd3, 0xf3, 0x2f, 0xfc,
  0x08, 0xc7, 0xb5, 0xf6, 0x4c, 0x1f, 0x13, 0xe0, 0xac, 0x13, 0x4c, 0x23,
  0xbb, 0xb2, 0x45, 0x0f, 0x0c, 0xe0, 0xf8, 0x19, 0xe6, 0xf1, 0x29, 0x94,
  0x53, 0xa8, 0xc5, 0xea, 0x34, 0xe8, 0xce, 0xdd, 0x04, 0xde, 0x3e, 0xb5,
  0x97, 0xe8, 0x55, 0xd2, 0x0b, 0xe7, 0xf5, 0x9c, 0xf0, 0x25, 0x4e, 0xe6,
  0x35, 0xc6, 0xe0, 0x2e, 0xd6, 0xa6, 0x39, 0x36, 0x1c, 0xf3, 0xac, 0x44,
  0xe2, 0x8d, 0x3e, 0xac, 0xa2, 0xdc, 0x31, 0xa5, 0x32, 0xd9, 0xef, 0xc1,
  0x0a, 0x0e, 0xc7, 0x2c, 0x22, 0xd9, 0x45, 0x2b, 0x47, 0x1b, 0xf6, 0xae,
  0xd3, 0x04, 0x4d, 0xdb, 0xe6, 0xea, 0xe6, 0x12, 0x23, 0x45, 0xff, 0xa0,
  0x95, 0x2e, 0xe7, 0x0b, 0xa7, 0x9d, 0x4e, 0xbc, 0xd6, 0xbb, 0x1e, 0xf1,
  0xa9, 0x1e, 0xf1, 0xa4, 0x4f, 0x09, 0xda, 0x2f, 0x1a, 0xd6, 0x4d, 0x0f,
  0xc8, 0xc8, 0x53, 0xc4, 0xed, 0xc2, 0xa7, 0xcb, 0xc6, 0x2f, 0x11, 0x05,
  0x0f, 0x14, 0xe8, 0xd5, 0xaa, 0xac, 0xab, 0xda, 0xf0, 0x3d, 0xce, 0xd8,
  0x0a, 0x95, 0x92, 0x46, 0x52, 0x8c, 0x90, 0x28, 0x0e, 0x0e, 0xc3, 0xa4,
  0x51, 0xe8, 0xd8, 0x25, 0x15, 0xd5, 0x09, 0x1b, 0xe7, 0xc9, 0x41, 0x4d,
  0x1e, 0x18, 0x93, 0x0c, 0x34, 0x3e, 0x58, 0x2c, 0xad, 0x1a, 0xd8, 0xa7,
  0x12, 0x1c, 0x04, 0x88, 0x9d, 0x9a, 0x81, 0xab, 0xa6, 0x0d, 0x2d, 0xe0,
  0x05, 0x22, 0xbb, 0xaa, 0x93, 0xdc, 0xd5, 0x92, 0x22, 0x2e, 0xd7, 0x0a,
  0x4b, 0x0d, 0x0d, 0x2c, 0xad, 0x31, 0x48, 0xa8, 0x8a, 0x04, 0xdf, 0xc5,
  0x13, 0xd5, 0x9f, 0xbd, 0xd4, 0x3e, 0xd2, 0xee, 0x3b, 0xad, 0xa9, 0xb1,
  0x08, 0x00, 0x08, 0x08, 0xe2, 0xd8, 0xb1, 0x17, 0x0b, 0x42, 0x14, 0xbe,
  0x0e, 0x0f, 0x28, 0x38, 0x05, 0x49, 0x37, 0xac, 0x4d, 0xeb, 0x2c, 0xe2,
  0xbd, 0x9f, 0x01, 0x93, 0xcc, 0xbd, 0x96, 0x1e, 0x09, 0x90, 0x36, 0x22,
  0xdc, 0x13, 0xc9, 0x1d, 0xd1, 0xe4, 0xe8, 0x8e, 0xdf, 0x20, 0xe5, 0xfa,
  0x85, 0xa3, 0x46, 0xe3, 0x01, 0x00, 0x07, 0x2c, 0x19, 0x0c, 0x82, 0xd8,
  0xd1, 0x39, 0x8b, 0x14, 0xe3, 0x07, 0x2b, 0xb2, 0xc9, 0x4a, 0xfc, 0x13,
  0xb0, 0xa1, 0x3a, 0xdf, 0x90, 0xda, 0xe3, 0xed, 0x2e, 0xf3, 0xe4, 0x01,
  0xf9, 0xf5, 0x08, 0x1b, 0x07, 0x03, 0xfc, 0xed, 0xfb, 0x05, 0xc6, 0x03,
  0x30, 0x1a, 0xda, 0x11, 0x38, 0xec, 0xfb, 0x20, 0x52, 0xdf, 0xc7, 0x03,
  0x01, 0x4e, 0x03, 0xc2, 0x1b, 0xe4, 0xc7, 0xfa, 0x1a, 0x00, 0xd1, 0x59,
  0x39, 0x1b, 0xf4, 0x12, 0xbb, 0x34, 0x2c, 0xa8, 0xe2, 0x0b, 0xe9, 0xee,
  0x18, 0x02, 0xfb, 0x50, 0x21, 0x03, 0x26, 0xed, 0xde, 0x1d, 0x20, 0xe9,
  0x08, 0xf7, 0xe0, 0x11, 0xec, 0xf4, 0xe7, 0x5a, 0xf3, 0xf5, 0x50, 0x04,
  0xe4, 0x15, 0x20, 0xfb, 0x30, 0x0b, 0xeb, 0xf8, 0x2f, 0xd0, 0xc0, 0x0d,
  0xfd, 0x1a, 0xc2, 0xd4, 0xea, 0x38, 0xb1, 0x0f, 0x18, 0x35, 0xe8, 0x00,
  0x46, 0xfd, 0xd7, 0x10, 0xfa, 0x25, 0xd2, 0x0b, 0xeb, 0x4a, 0x14, 0xd9,
  0xf5, 0xe4, 0x03, 0xf1, 0x36, 0x0d, 0xf6, 0x44, 0x06, 0xf9, 0x08, 0x14,
  0xbe, 0x26, 0x2b, 0xd9, 0x16, 0x0e, 0x02, 0xe9, 0xfd, 0x27, 0x32, 0x3d,
  0x1d, 0xe1, 0x01, 0xea, 0x07, 0x30, 0x0c, 0xf0, 0xda, 0x0f, 0x0f, 0xee,
  0xf3, 0x2a, 0x18, 0x11, 0xd4, 0x0b, 0x58, 0xf4, 0x37, 0xb4, 0xf6, 0x2c,
  0x1e, 0x23, 0xed, 0x25, 0x37, 0xc3, 0xb5, 0xef, 0xf4, 0xeb, 0xc0, 0x05,
  0x0e, 0xed, 0xdd, 0xf1, 0xe3, 0x06, 0x02, 0x0c, 0x16, 0x12, 0xcb, 0x34,
  0x0c, 0x1f, 0xee, 0x2f, 0x03, 0x21, 0x1f, 0xf9, 0x2f, 0x0e, 0x02, 0x17,
  0x03, 0x0e, 0x0e, 0x27, 0x05, 0x05, 0x04, 0xf9, 0x13, 0x02, 0x34, 0xf6,
  0xfa, 0x23, 0xf0, 0xcf, 0xf9, 0x2d, 0x23, 0x97, 0xfa, 0xe1, 0xf8, 0xf1,
  0xf6, 0xd9, 0xe4, 0x3a, 0x08, 0x03, 0xfd, 0xe3, 0x09, 0x49, 0x44, 0x81,
  0xd1, 0xc5, 0xaa, 0xbf, 0x0a, 0xdc, 0xe5, 0x1c, 0x01, 0xfd, 0xd8, 0xd9,
  0xf8, 0x05, 0xed, 0xfe, 0x01, 0x0e, 0x19, 0xfb, 0x22, 0xe7, 0x19, 0x09,
  0x05, 0x2a, 0xc2, 0x14, 0xdc, 0xdc, 0x04, 0xe2, 0xf6, 0xec, 0x17, 0xeb,
  0x1c, 0x10, 0x22, 0x24, 0x0a, 0xdf, 0x08, 0x05, 0x1a, 0x06, 0x10, 0xe9,
  0x1a, 0xf8, 0x12, 0x07, 0xf9, 0x15, 0xf1, 0xef, 0xeb, 0x12, 0xf9, 0x13,
  0x21, 0x0e, 0x11, 0xd7, 0x1f, 0xfd, 0xea, 0x2a, 0x18, 0x13, 0x0a, 0x18,
  0xf8, 0x05, 0x19, 0x18, 0x15, 0x0b, 0x0a, 0xf0, 0xff, 0xe4, 0xe3, 0x17,
  0x04, 0xf5, 0xff, 0x02, 0xdf, 0xc3, 0x18, 0xe1, 0x0f, 0xe5, 0xed, 0xed,
  0xfc, 0xe1, 0x02, 0xdc, 0xdc, 0x05, 0x2f, 0x0b, 0xe7, 0x26, 0xe0, 0x14,
  0xd1, 0x21, 0xe9, 0x15, 0xf0, 0xe7, 0xff, 0xf1, 0x22, 0xf1, 0x1c, 0x25,
  0x0a, 0xff, 0xe6, 0x00, 0x11, 0xf3, 0xed, 0xea, 0xfe, 0x1e, 0xf4, 0x2a,
  0x04, 0xf7, 0x21, 0x21, 0x2e, 0x32, 0xd1, 0x0e, 0xf4, 0xdb, 0x0a, 0x2f,
  0x2a, 0x34, 0x05, 0xe9, 0xdb, 0x06, 0x33, 0x10, 0x33, 0x05, 0xe4, 0xf9,
  0x0f, 0xef, 0xe4, 0x2c, 0x28, 0xee, 0x14, 0x0b, 0x09, 0x2f, 0xf6, 0xf4,
  0x23, 0x01, 0x0f, 0xfa, 0x1b, 0xff, 0xe1, 0xf5, 0x03, 0x0f, 0xea, 0xfe,
  0xea, 0x31, 0xdf, 0xef, 0xfe, 0x08, 0xf4, 0xe2, 0xe6, 0xfb, 0xd0, 0x2a,
  0x49, 0x01, 0x13, 0x10, 0xdd, 0x4e, 0x10, 0xcc, 0xfe, 0x07, 0x08, 0x1a,
  0x25, 0xe3, 0x01, 0x42, 0x31, 0xee, 0xea, 0xf8, 0xe5, 0x56, 0x08, 0x9f,
  0x2b, 0xe6, 0x1c, 0x0e, 0xf1, 0xd7, 0xcd, 0x5c, 0x29, 0x23, 0x14, 0xfd,
  0xf2, 0x21, 0xff, 0xce, 0x0d, 0x03, 0xe9, 0x38, 0xe2, 0x1b, 0x1d, 0x3c,
  0x09, 0x2c, 0x4c, 0xf4, 0x22, 0xf5, 0xf7, 0x39, 0x22, 0x0c, 0xdf, 0xef,
  0x1a, 0x04, 0xf6, 0x13, 0x08, 0xd7, 0xa3, 0xf0, 0xdb, 0x53, 0xe0, 0xe1,
  0x40, 0xf3, 0x1a, 0x36, 0x4d, 0xed, 0xe9, 0x37, 0x2e, 0xf0, 0xa6, 0x40,
  0xed, 0x7f, 0xcc, 0x9a, 0x2a, 0xdf, 0xfb, 0x33, 0x19, 0xb3, 0xff, 0x44,
  0x0f, 0x23, 0xc6, 0x09, 0xdc, 0x37, 0xfd, 0xad, 0x10, 0xec, 0xfa, 0x0e,
  0xef, 0xfa, 0xe5, 0x5a, 0x1f, 0x20, 0x04, 0x2c, 0xda, 0x05, 0xe6, 0xcd,
  0x1a, 0x22, 0xff, 0x1a, 0x19, 0xe6, 0x08, 0x0a, 0x12, 0x16, 0x08, 0x10,
  0xfc, 0xe2, 0xea, 0x28, 0x03, 0x35, 0x01, 0x2c, 0xd2, 0xe8, 0xc3, 0x30,
  0xbf, 0x10, 0x9b, 0x2d, 0x35, 0x2f, 0xfc, 0xdf, 0x4c, 0x27, 0xef, 0xec,
  0x4a, 0xd2, 0x08, 0x13, 0xe3, 0x1a, 0x9d, 0x0f, 0x00, 0x34, 0xea, 0xdc,
  0x16, 0x36, 0x1e, 0x17, 0x34, 0x27, 0x37, 0xb0, 0xf3, 0x2a, 0xc5, 0x1f,
  0x1f, 0x0b, 0xe7, 0x12, 0x17, 0x06, 0x2f, 0x0d, 0xeb, 0x2b, 0xff, 0x1a,
  0x0a, 0x2d, 0xfa, 0x33, 0x17, 0x0a, 0x1d, 0xe5, 0x0e, 0x27, 0x31, 0x0e,
  0xe6, 0xec, 0xe6, 0x27, 0xff, 0xf1, 0xf7, 0x16, 0x0b, 0x01, 0x1c, 0xf2,
  0xd6, 0x22, 0xd7, 0x0e, 0xd3, 0xd8, 0xe1, 0xfc, 0xe3, 0x2f, 0xdf, 0xfb,
  0xf1, 0xdc, 0x1f, 0x12, 0x08, 0x1a, 0xfd, 0x0d, 0x11, 0xe5, 0xe7, 0xeb,
  0xf3, 0x10, 0xdb, 0x1e, 0xfa, 0x19, 0xf9, 0x20, 0x05, 0x00, 0x17, 0x17,
  0x2e, 0x0a, 0xe6, 0xed, 0xe6, 0x18, 0x0c, 0x05, 0x1d, 0xf3, 0x07, 0x32,
  0x28, 0x0d, 0x14, 0xf2, 0x12, 0x07, 0x01, 0xcd, 0x33, 0x1b, 0xf4, 0x0d,
  0xdf, 0x2f, 0xf4, 0x28, 0xfc, 0xdc, 0xce, 0x0b, 0x16, 0xcd, 0xef, 0xf5,
  0x17, 0x15, 0xec, 0x07, 0xdd, 0xe5, 0x1e, 0xf1, 0x1f, 0x18, 0xce, 0x08,
  0x0b, 0xe2, 0xd6, 0x1d, 0x03, 0xf2, 0xe0, 0xda, 0x2e, 0x12, 0xf5, 0x0f,
  0x00, 0xe6, 0xe9, 0xfa, 0xfd, 0xc0, 0x01, 0x04, 0xea, 0xe3, 0xfc, 0xfc,
  0x0f, 0xf6, 0x19, 0x15, 0x1b, 0x02, 0xe3, 0x01, 0x2d, 0xee, 0xd7, 0x05,
  0x13, 0x17, 0xc6, 0xde, 0x26, 0x0a, 0x17, 0xed, 0x07, 0x0f, 0xd4, 0xe3,
  0x17, 0xde, 0xf4, 0xdc, 0x13, 0xf2, 0xd8, 0xee, 0xf3, 0xf3, 0x07, 0xf2,
  0x05, 0x1c, 0x0c, 0x1b, 0xf2, 0x3b, 0x52, 0xf6, 0xd6, 0x14, 0xbf, 0xed,
  0x05, 0x08, 0xdd, 0x06, 0xfe, 0x0b, 0xe1, 0xe4, 0xd8, 0x1f, 0xef, 0xd8,
  0x0a, 0x1a, 0x3c, 0x19, 0x20, 0x0c, 0x39, 0x53, 0x02, 0x2e, 0xe7, 0xf6,
  0xbb, 0x0c, 0xe2, 0x0f, 0xb2, 0x24, 0x50, 0x06, 0xd9, 0xe3, 0x00, 0x64,
  0xc3, 0xf7, 0x1c, 0x17, 0xf1, 0x22, 0x2c, 0xdb, 0xe9, 0xf0, 0xde, 0x20,
  0x04, 0xfb, 0x10, 0x22, 0x3c, 0x1a, 0xff, 0xd0, 0xf3, 0xfc, 0x08, 0xaf,
  0x22, 0xfe, 0xaf, 0xe6, 0xff, 0xe2, 0xf0, 0x1d, 0x14, 0x00, 0xdd, 0x19,
  0x07, 0xee, 0x07, 0xae, 0x30, 0x0a, 0x8b, 0xf5, 0x01, 0x30, 0x19, 0x17,
  0xe9, 0xc1, 0xdc, 0xb7, 0xd3, 0x02, 0x31, 0xeb, 0x0c, 0x1c, 0x3f, 0xde,
  0xf3, 0xee, 0x32, 0x42, 0xb3, 0xd9, 0xde, 0x09, 0x81, 0x0e, 0xfe, 0xde,
  0xc3, 0x06, 0x42, 0xe8, 0xe9, 0xcc, 0x0c, 0x30, 0xbf, 0xf6, 0xe4, 0xf0,
  0xb4, 0xed, 0xf2, 0x30, 0x1d, 0xf4, 0x1e, 0xef, 0x24, 0xcd, 0xd9, 0x04,
  0xec, 0x31, 0xfd, 0x05, 0xfc, 0xe8, 0x02, 0xc5, 0xdb, 0xf1, 0x05, 0xda,
  0x27, 0x06, 0x0a, 0xfd, 0x15, 0xe4, 0xde, 0xd8, 0xf4, 0xfd, 0xd4, 0x0a,
  0x27, 0x1d, 0xe7, 0x2c, 0xeb, 0x02, 0x1e, 0x23, 0xf6, 0xe4, 0x64, 0x06,
  0x41, 0x27, 0x6c, 0xd5, 0x13, 0xb6, 0x33, 0x12, 0xc0, 0x02, 0x0f, 0xee,
  0xc8, 0xf6, 0x6a, 0x30, 0xd7, 0x33, 0xef, 0x0a, 0xf8, 0x0e, 0x04, 0x0f,
  0x32, 0xd6, 0xd6, 0x1e, 0xd1, 0xf7, 0x16, 0x34, 0xce, 0x3d, 0x07, 0x27,
  0xf7, 0x0f, 0x04, 0x24, 0x16, 0xf5, 0xe7, 0x1e, 0x03, 0x1d, 0xd7, 0xf9,
  0xd2, 0x11, 0xf3, 0x30, 0xf7, 0xe6, 0x34, 0x12, 0xf5, 0xc0, 0xe3, 0x27,
  0xd9, 0xfc, 0xb6, 0x37, 0xd4, 0xe0, 0xc9, 0x0a, 0x39, 0x00, 0x19, 0x07,
  0x12, 0x14, 0x11, 0x0c, 0x59, 0x26, 0x35, 0x2d, 0x2a, 0xfa, 0x0f, 0x18,
  0x03, 0x03, 0xbd, 0x18, 0x0d, 0x19, 0xe1, 0xad, 0xdf, 0xf9, 0x2d, 0xf7,
  0xfc, 0x05, 0x20, 0x19, 0xee, 0xd0, 0xea, 0x23, 0xe7, 0x10, 0x25, 0xde,
  0x26, 0x10, 0xf0, 0xf3, 0x36, 0x1b, 0x08, 0xe3, 0xa0, 0xe1, 0xfa, 0xdf,
  0xc4, 0xf7, 0xcb, 0xd8, 0x21, 0xd9, 0x06, 0xfa, 0x36, 0x16, 0x08, 0x19,
  0xe5, 0xe7, 0xe7, 0xf0, 0xd7, 0x0a, 0xfa, 0xc7, 0xf4, 0x19, 0x28, 0x1e,
  0x1f, 0x1f, 0xde, 0xdf, 0xf9, 0xe3, 0xff, 0x0c, 0xf3, 0xff, 0x1d, 0xe7,
  0xde, 0xf9, 0x0e, 0x12, 0x02, 0xfc, 0xca, 0xdf, 0x3c, 0x16, 0x1d, 0xee,
  0x1e, 0xf5, 0x06, 0x34, 0x0e, 0x33, 0x36, 0xe7, 0xee, 0x03, 0x39, 0xfa,
  0xd0, 0x08, 0x03, 0xf9, 0x22, 0xe3, 0xfd, 0xee, 0x04, 0xf6, 0x6b, 0xe1,
  0xe1, 0x45, 0x4e, 0xf0, 0xbd, 0x0c, 0x02, 0x24, 0x23, 0xe6, 0xef, 0xd8,
  0xfe, 0x0a, 0x1d, 0x08, 0x24, 0x47, 0xff, 0xeb, 0x0c, 0xfa, 0xeb, 0x48,
  0x22, 0xfe, 0xf0, 0x34, 0x34, 0x39, 0x30, 0x24, 0xed, 0x32, 0x48, 0xe1,
  0x00, 0x00, 0xfb, 0xea, 0xf9, 0xfe, 0xe7, 0x09, 0xdc, 0xfc, 0xfd, 0xde,
  0x0e, 0xf8, 0x0d, 0x11, 0x0f, 0xe6, 0xe7, 0xf2, 0x07, 0x1d, 0xe2, 0xfd,
  0x01, 0x30, 0xd7, 0x21, 0x28, 0xfa, 0xe0, 0x4c, 0x53, 0xde, 0x29, 0xe1,
  0x5a, 0x66, 0x1a, 0x02, 0x0f, 0xe9, 0x03, 0xdb, 0x10, 0xe1, 0xdc, 0x22,
  0x1e, 0xed, 0xdf, 0x25, 0x00, 0x58, 0xf8, 0x1c, 0x00, 0xe9, 0xe3, 0x1e,
  0xf3, 0xd8, 0xe2, 0x34, 0x18, 0xf4, 0x21, 0x16, 0xf3, 0x3a, 0xf5, 0x0a,
  0x19, 0x2e, 0x27, 0x2e, 0xec, 0x2a, 0xfa, 0x66, 0x25, 0x19, 0x1a, 0xfc,
  0x0a, 0x10, 0xfd, 0xf4, 0x55, 0xde, 0xce, 0x00, 0x5c, 0xf3, 0x2d, 0xf1,
  0xc0, 0xf0, 0xd5, 0xec, 0x35, 0x12, 0xd1, 0x3d, 0x22, 0x08, 0xee, 0x0e,
  0x7a, 0xfb, 0x4d, 0xeb, 0xe0, 0x0e, 0xde, 0x0c, 0xde, 0x4e, 0xd1, 0xf7,
  0xf2, 0x26, 0x0b, 0xd3, 0x4d, 0xe2, 0xe4, 0x25, 0xf2, 0xe1, 0xcb, 0xdf,
  0xf9, 0x18, 0xee, 0x15, 0x24, 0xf0, 0x15, 0x0c, 0x31, 0xf1, 0xea, 0x38,
  0xfc, 0xdd, 0xf7, 0xf0, 0x13, 0x18, 0xff, 0x17, 0x26, 0xdb, 0x09, 0x06,
  0xe5, 0x26, 0xf8, 0x66, 0x19, 0xee, 0x0d, 0x3f, 0xd1, 0x25, 0x14, 0xfa,
  0xed, 0x36, 0x20, 0x26, 0xb9, 0x32, 0x28, 0x22, 0x0d, 0xe2, 0x00, 0xeb,
  0x09, 0xb7, 0xee, 0xdf, 0xce, 0x0d, 0x1f, 0x20, 0xcc, 0x3f, 0x0f, 0xb7,
  0x0f, 0x04, 0x3e, 0xe9, 0x08, 0xf3, 0x1a, 0x21, 0x1a, 0xd8, 0xd9, 0xeb,
  0x26, 0xf3, 0xf8, 0x12, 0xf3, 0x20, 0x0b, 0xeb, 0x22, 0x0d, 0x19, 0x10,
  0x21, 0xd8, 0x07, 0x1c, 0x37, 0x04, 0xd8, 0x54, 0xec, 0xf3, 0xc5, 0x00,
  0xa1, 0x0a, 0xeb, 0x0c, 0xe4, 0x17, 0xe1, 0x2f, 0xf7, 0xe3, 0xef, 0x49,
  0x1d, 0x1f, 0x17, 0xfc, 0x0d, 0xf7, 0xe6, 0x0b, 0xe3, 0xfc, 0x5b, 0x27,
  0xd0, 0x3f, 0xd5, 0x2e, 0x36, 0x34, 0x51, 0x03, 0xf2, 0x08, 0x08, 0x1a,
  0xfb, 0xe8, 0x42, 0x2b, 0xd6, 0xc7, 0x81, 0x36, 0x79, 0x33, 0x0c, 0x5f,
  0xf8, 0x35, 0xf3, 0x09, 0xfd, 0xec, 0xee, 0x00, 0x04, 0xf3, 0xd6, 0x1b,
  0x40, 0x09, 0xde, 0x21, 0xfb, 0x1e, 0x01, 0x0b, 0x13, 0x22, 0x1a, 0x29,
  0xf5, 0xf4, 0xfb, 0x11, 0xf1, 0xea, 0xed, 0x08, 0xf9, 0xff, 0x13, 0x07,
  0x0a, 0x21, 0x45, 0x1e, 0x1a, 0x3f, 0x32, 0x0e, 0xdd, 0xee, 0x3d, 0x12,
  0x47, 0xfd, 0xf0, 0x35, 0xfd, 0xfa, 0x1e, 0xfa, 0xd2, 0xf3, 0xb2, 0x24,
  0x1f, 0x08, 0xc7, 0x2f, 0xed, 0x2a, 0x00, 0x0a, 0x4c, 0xdb, 0xd1, 0x0f,
  0x18, 0x9e, 0xc8, 0x32, 0x38, 0x13, 0xb2, 0x20, 0x11, 0x5b, 0xda, 0xb3,
  0x16, 0x30, 0xab, 0xdf, 0x1a, 0xb2, 0xc0, 0x2c, 0x28, 0x13, 0xbd, 0x26,
  0xfa, 0x20, 0x20, 0xe7, 0x27, 0x0e, 0x20, 0xf9, 0x17, 0x17, 0x3a, 0xe2,
  0x1b, 0x0b, 0xb8, 0xdc, 0x08, 0x0b, 0xf6, 0x0e, 0xe7, 0x1b, 0x0f, 0xf6,
  0x21, 0x3d, 0x53, 0x84, 0x0f, 0x28, 0xf7, 0xd6, 0x06, 0xda, 0xf1, 0x14,
  0x9d, 0xbc, 0xfe, 0xc7, 0xb1, 0x84, 0x13, 0xb4, 0xd2, 0xcd, 0x15, 0x94,
  0x48, 0x40, 0x97, 0x35, 0xc4, 0x38, 0x3f, 0x17, 0x45, 0x13, 0xd7, 0x3e,
  0x1c, 0xba, 0xaf, 0x41, 0xe6, 0x93, 0x0d, 0x4e, 0xa2, 0xe9, 0x8c, 0x46,
  0x84, 0x0f, 0x22, 0xdb, 0x36, 0xc4, 0x2b, 0xe2, 0xd7, 0xe3, 0x37, 0x53,
  0x3b, 0x47, 0x2d, 0x96, 0x92, 0xe7, 0x04, 0xaa, 0xe2, 0xc5, 0xab, 0x8a,
  0x21, 0xd7, 0x0a, 0xb4, 0xce, 0xde, 0x97, 0x4c, 0x43, 0x0c, 0xaa, 0xd5,
  0x4b, 0x43, 0x21, 0x12, 0x8c, 0xb6, 0xd4, 0xd0, 0xe9, 0x98, 0x19, 0x22,
  0x99, 0xf0, 0x49, 0x3c, 0xb1, 0x98, 0x26, 0x4b, 0x95, 0xd9, 0x0c, 0xca,
  0xf7, 0x11, 0x29, 0xba, 0xef, 0xb9, 0xa3, 0x07, 0x18, 0x95, 0xce, 0x8a,
  0xeb, 0xbb, 0x2b, 0x41, 0xbb, 0xe0, 0x02, 0xd3, 0xf1, 0x1b, 0xcd, 0xda,
  0xf5, 0xaf, 0xec, 0x30, 0xe3, 0x0a, 0xfb, 0x42, 0xbf, 0xc3, 0x4f, 0x3f,
  0x2b, 0x39, 0x9c, 0x37, 0xae, 0x37, 0xf7, 0x98, 0x22, 0xb6, 0x26, 0xd1,
  0x36, 0x98, 0xfe, 0x47, 0x55, 0xe0, 0x97, 0xed, 0x4f, 0xe4, 0xa4, 0xed,
  0x05, 0x00, 0xcf, 0xcc, 0x0a, 0xb7, 0xc5, 0x1f, 0xc8, 0xaa, 0xea, 0x0e,
  0x29, 0xa3, 0xda, 0xee, 0x9b, 0x43, 0xe0, 0x94, 0xd6, 0x26, 0xa8, 0xeb,
  0xa1, 0x24, 0x25, 0xce, 0xe1, 0xd7, 0xf7, 0xde, 0x40, 0x55, 0x4e, 0x11,
  0xfa, 0xd2, 0x21, 0x10, 0xee, 0x13, 0x02, 0x3f, 0xfc, 0x01, 0x05, 0x97,
  0x25, 0xbd, 0xe2, 0xb3, 0xc2, 0xdb, 0x81, 0x22, 0xfb, 0xfd, 0xfb, 0xab,
  0x1d, 0x1e, 0xe5, 0xe1, 0xb1, 0x36, 0xb1, 0xa6, 0x30, 0x9b, 0x8f, 0xed,
  0x31, 0x09, 0xc9, 0x06, 0xcb, 0x1f, 0xc9, 0xb8, 0xc7, 0xba, 0xeb, 0xaf,
  0xcb, 0x10, 0x11, 0x39, 0xd2, 0x52, 0x9d, 0xee, 0x08, 0xd6, 0x21, 0xa7,
  0xeb, 0x04, 0x38, 0xcf, 0xa3, 0xcb, 0xe0, 0x18, 0x45, 0x0f, 0x36, 0x0c,
  0x4b, 0x32, 0x2c, 0xb2, 0x16, 0x0a, 0x59, 0xb8, 0x33, 0x2e, 0x27, 0x14,
  0xc5, 0x89, 0x5d, 0xf1, 0xb5, 0x1b, 0x00, 0xef, 0xf7, 0xf0, 0x17, 0xcb,
  0x1b, 0xbb, 0x9e, 0x05, 0xb5, 0xff, 0x33, 0xa6, 0x08, 0xe6, 0x49, 0xba,
  0xa1, 0xe5, 0xce, 0x9c, 0x1d, 0xc6, 0x32, 0xac, 0xce, 0x39, 0x4e, 0x42,
  0x20, 0xbb, 0x24, 0x2f, 0x2d, 0xd9, 0x91, 0xab, 0x41, 0xd5, 0xba, 0x36,
  0x2f, 0xbd, 0x88, 0xc7, 0xff, 0x91, 0xdc, 0xe7, 0x4a, 0xc3, 0xd7, 0x2a,
  0x48, 0x17, 0x25, 0x33, 0x24, 0x5e, 0xa4, 0xa5, 0x0b, 0xff, 0xfa, 0xa6,
  0x0e, 0x30, 0x54, 0x47, 0x14, 0x0d, 0x43, 0x90, 0x37, 0xff, 0x21, 0xb3,
  0xb6, 0xdd, 0xde, 0xec, 0x30, 0xf3, 0x9e, 0xd1, 0xb4, 0x32, 0x1c, 0x35,
  0xda, 0x11, 0xdf, 0x62, 0x37, 0xa7, 0x0b, 0xd2, 0x8d, 0x08, 0xe0, 0xba,
  0xa6, 0x4b, 0xa6, 0x1d, 0x30, 0xdb, 0x97, 0xab, 0xc7, 0xbc, 0xc2, 0xf2,
  0xe5, 0x8f, 0x9e, 0xd4, 0x33, 0x01, 0xd4, 0xd5, 0x2a, 0xfa, 0xed, 0xda,
  0x14, 0x04, 0x0b, 0xf6, 0xe8, 0x09, 0xe6, 0x06, 0xfa, 0xe3, 0xf0, 0xf5,
  0x17, 0xdd, 0xfc, 0x02, 0xec, 0x01, 0xd4, 0xe8, 0xf2, 0x07, 0xb8, 0xc8,
  0x0b, 0x0c, 0xed, 0x0a, 0xf3, 0xf1, 0x14, 0x2b, 0x16, 0x04, 0xed, 0xf7,
  0xfd, 0x25, 0x0d, 0xc5, 0xf9, 0x14, 0x0e, 0x00, 0xf5, 0x0d, 0xd5, 0x2b,
  0x11, 0xfe, 0x19, 0x21, 0xee, 0x14, 0x05, 0xc3, 0x02, 0x0a, 0x23, 0xf0,
  0xe1, 0x05, 0x0f, 0x3d, 0xfd, 0x10, 0x0e, 0x23, 0x01, 0x09, 0xdc, 0xe9,
  0x20, 0x20, 0xf4, 0xdd, 0x26, 0x15, 0xed, 0xf1, 0x06, 0xf7, 0x07, 0x08,
  0xe3, 0xec, 0xf7, 0xee, 0xec, 0x10, 0xd7, 0xf4, 0x27, 0xc8, 0xee, 0xde,
  0xe9, 0xf7, 0xdb, 0xed, 0xf8, 0xfd, 0xe6, 0x1e, 0x25, 0xfd, 0xda, 0x11,
  0x1e, 0xf9, 0x1b, 0xfb, 0x07, 0xf1, 0xeb, 0x0a, 0xf0, 0xf1, 0xf7, 0xed,
  0x20, 0xeb, 0x31, 0x0d, 0x01, 0x19, 0x2a, 0x29, 0x00, 0x15, 0xcb, 0x17,
  0x12, 0x0f, 0x22, 0xef, 0xff, 0x26, 0x0e, 0xff, 0xf2, 0x2d, 0x20, 0x7f,
  0xf4, 0xec, 0x18, 0xfa, 0x3f, 0xfc, 0x17, 0x22, 0xf9, 0xf7, 0x21, 0x0c,
  0x20, 0x1f, 0x20, 0xe7, 0xf0, 0xe9, 0x2a, 0xec, 0xdf, 0x0d, 0x1a, 0x05,
  0xf5, 0xdf, 0xf5, 0x13, 0xf0, 0xd8, 0x0f, 0x09, 0xfb, 0x1a, 0xfa, 0xd5,
  0xea, 0xda, 0xe5, 0x0e, 0x10, 0xe8, 0xd8, 0x14, 0x12, 0xb8, 0xbf, 0x31,
  0x2f, 0x2e, 0x03, 0x1a, 0xfc, 0x1a, 0x1f, 0x22, 0xee, 0x21, 0xf7, 0xe4,
  0x10, 0xcd, 0xe4, 0x24, 0x12, 0xec, 0xd9, 0xda, 0x01, 0xf7, 0x26, 0x19,
  0xfb, 0xf8, 0xf3, 0x0e, 0xfa, 0xef, 0xf8, 0xff, 0x08, 0xf4, 0xf4, 0xed,
  0x17, 0xe4, 0x06, 0xf7, 0x20, 0xf9, 0x09, 0x08, 0x16, 0x1b, 0x18, 0x03,
  0x2f, 0x07, 0x30, 0x06, 0x13, 0xfb, 0x08, 0x16, 0xee, 0x11, 0x14, 0x12,
  0xf9, 0x16, 0x00, 0x18, 0x13, 0x08, 0x15, 0x0b, 0xf5, 0x0c, 0x0d, 0xfb,
  0x27, 0xe1, 0xff, 0x12, 0xfa, 0xd6, 0xb1, 0x08, 0x11, 0x0b, 0xea, 0x23,
  0xec, 0x2b, 0x02, 0xfe, 0x2c, 0xed, 0xdc, 0xda, 0xf1, 0xfd, 0x1e, 0x2b,
  0xf1, 0x14, 0xea, 0xeb, 0xd4, 0x1d, 0x19, 0x01, 0x15, 0xdc, 0xe9, 0xc9,
  0xf3, 0x02, 0x13, 0xd3, 0x13, 0xe4, 0xea, 0xfb, 0xed, 0xec, 0xfe, 0xeb,
  0x14, 0x26, 0x1d, 0xf7, 0xde, 0x1f, 0x2e, 0x14, 0xe6, 0x1b, 0x15, 0xf8,
  0x13, 0x18, 0x05, 0x01, 0x2e, 0x14, 0x2b, 0x1f, 0x45, 0x1e, 0x14, 0xe9,
  0x12, 0x13, 0xe8, 0xfd, 0x29, 0x19, 0xe2, 0x1f, 0x03, 0xef, 0x1b, 0x09,
  0x1a, 0x1a, 0xe1, 0xff, 0x13, 0x07, 0xdf, 0x10, 0x19, 0xea, 0x0b, 0x07,
  0x09, 0x09, 0x13, 0x0f, 0x0a, 0xde, 0x0d, 0x2a, 0x0e, 0x1a, 0xf7, 0xd9,
  0x11, 0x14, 0x10, 0x14, 0xe1, 0xe1, 0xf7, 0xeb, 0xe4, 0xe2, 0xdc, 0x04,
  0xda, 0xe1, 0x08, 0xe1, 0x0c, 0x18, 0x16, 0xf8, 0xfa, 0x25, 0x1a, 0x21,
  0x0e, 0x0f, 0xed, 0xf3, 0x02, 0xf4, 0x1d, 0x0d, 0x1c, 0xe8, 0xfa, 0x0f,
  0x19, 0x14, 0x1a, 0x13, 0xc4, 0xf9, 0xee, 0x04, 0x08, 0x02, 0xf9, 0x28,
  0xf8, 0xf6, 0x03, 0xfb, 0x01, 0xee, 0x3f, 0x0c, 0xe6, 0x1b, 0xf9, 0x0a,
  0xcc, 0xfa, 0xff, 0x15, 0xf9, 0xb3, 0x17, 0xdf, 0xeb, 0xfa, 0xee, 0x09,
  0xe0, 0x1c, 0xff, 0xdd, 0xe2, 0xf7, 0x3b, 0x00, 0x31, 0xd7, 0xf1, 0xf9,
  0x02, 0xe9, 0x09, 0x16, 0x1f, 0x1a, 0xec, 0xc4, 0xdc, 0xee, 0x7f, 0xe9,
  0x0a, 0x0c, 0x1d, 0x23, 0xe9, 0x06, 0xf7, 0x15, 0xe4, 0xdf, 0xd9, 0x31,
  0xcc, 0x09, 0xbb, 0x18, 0x28, 0xe9, 0x00, 0xe8, 0x08, 0x0d, 0x06, 0x0a,
  0x00, 0xed, 0xe8, 0x25, 0xf9, 0xed, 0xee, 0xfc, 0x18, 0x16, 0x18, 0xf5,
  0xfa, 0x04, 0xf3, 0x15, 0x00, 0x11, 0x3b, 0xd0, 0x20, 0x28, 0x35, 0x03,
  0x23, 0xfa, 0x37, 0xf6, 0xde, 0x02, 0x2c, 0xff, 0xd1, 0x1d, 0x1a, 0xc7,
  0x09, 0x0c, 0x38, 0xe3, 0x1f, 0x06, 0x0a, 0x01, 0xe7, 0x15, 0x1a, 0x21,
  0xe0, 0x18, 0x4f, 0xb9, 0xdd, 0x07, 0x29, 0x22, 0x4b, 0x03, 0x15, 0x19,
  0x26, 0x03, 0xbc, 0x06, 0x2e, 0xde, 0xfb, 0x09, 0xf2, 0x15, 0xd6, 0x08,
  0x1d, 0x18, 0xeb, 0x05, 0x00, 0x1b, 0xfc, 0xf3, 0x02, 0x0b, 0x38, 0x02,
  0xee, 0x0e, 0xcb, 0x05, 0x0d, 0xfd, 0xe3, 0xf7, 0x20, 0xfc, 0x3f, 0xf6,
  0x11, 0x43, 0x02, 0x12, 0x1a, 0xf0, 0xed, 0x26, 0xe5, 0xf9, 0xf9, 0xff,
  0x03, 0x13, 0x26, 0xe2, 0x2e, 0x41, 0x1c, 0xaf, 0xfe, 0x0c, 0x20, 0xef,
  0x31, 0x08, 0x08, 0x34, 0xeb, 0x18, 0x29, 0xe3, 0xe4, 0x0f, 0x0b, 0x90,
  0xe6, 0x1b, 0x13, 0x18, 0x40, 0xda, 0x1f, 0x12, 0x29, 0xf0, 0x0d, 0xd7,
  0x0e, 0x1f, 0x18, 0x0f, 0xf7, 0x01, 0x37, 0xde, 0xf2, 0x03, 0xe8, 0x28,
  0x0e, 0x01, 0x11, 0xe8, 0x24, 0x44, 0x05, 0xf5, 0x0f, 0x0e, 0xdd, 0x18,
  0x07, 0x29, 0xf6, 0xf2, 0x02, 0x1c, 0x0d, 0x22, 0xf9, 0x02, 0x21, 0x07,
  0x14, 0xee, 0xdc, 0x02, 0x0a, 0xdf, 0xef, 0x26, 0x12, 0x12, 0xf9, 0xef,
  0xf7, 0xe8, 0x39, 0xd0, 0x00, 0xea, 0x11, 0x03, 0xff, 0xf8, 0xed, 0x1d,
  0x1f, 0xe2, 0xf7, 0xd7, 0x03, 0xf2, 0x15, 0x06, 0x08, 0x1b, 0xdb, 0x07,
  0xdb, 0x36, 0xdf, 0xe4, 0xe9, 0xf3, 0xf7, 0xe1, 0x0a, 0xdb, 0x16, 0x04,
  0xb7, 0xe9, 0x0a, 0xea, 0xff, 0x0a, 0xda, 0x20, 0xfe, 0x13, 0x17, 0x02,
  0x07, 0x01, 0x00, 0x02, 0xba, 0x01, 0xfe, 0x1f, 0xe6, 0xf0, 0x0b, 0x01,
  0x33, 0x03, 0x1c, 0xe9, 0x0d, 0x0a, 0xf9, 0x15, 0xe4, 0x17, 0xfb, 0xef,
  0x2a, 0xf0, 0xe8, 0xf7, 0xfa, 0x04, 0x14, 0x33, 0x04, 0xe8, 0xd2, 0x2a,
  0x1c, 0x17, 0xef, 0xff, 0xdc, 0x24, 0x21, 0xcf, 0xeb, 0xd6, 0xe5, 0x03,
  0xe7, 0xde, 0xdc, 0x69, 0x14, 0xef, 0xdc, 0xf3, 0xca, 0x10, 0xe3, 0xd9,
  0xe5, 0xee, 0xfa, 0x1e, 0xa4, 0xe1, 0x35, 0x19, 0xd0, 0xda, 0xe8, 0xf6,
  0xe8, 0xcb, 0xef, 0x24, 0xe9, 0x20, 0x0f, 0xef, 0xf1, 0xd6, 0x29, 0x15,
  0x0c, 0xe8, 0x21, 0x24, 0xdc, 0xc9, 0xe6, 0x1c, 0xb4, 0xee, 0xe5, 0xf4,
  0xa0, 0x0c, 0xf9, 0x14, 0xdd, 0x18, 0xf1, 0x1f, 0xd1, 0xca, 0x25, 0xfa,
  0x0f, 0x04, 0x1b, 0xf4, 0xdb, 0x40, 0x48, 0xd9, 0xfd, 0x1d, 0xc3, 0xe1,
  0x4c, 0xdc, 0x19, 0xfc, 0x0f, 0x32, 0x0a, 0xf0, 0x4d, 0x23, 0x40, 0x09,
  0x0d, 0x21, 0x14, 0xde, 0x00, 0xdb, 0x2f, 0xe9, 0xb8, 0xc5, 0xc6, 0xe9,
  0xa6, 0x10, 0x07, 0xdd, 0xb4, 0x0e, 0xf2, 0x3b, 0x2b, 0xa6, 0x02, 0x11,
  0xfe, 0x1a, 0x40, 0xee, 0xba, 0x2d, 0x25, 0xdb, 0x0f, 0xfd, 0xbd, 0x2d,
  0x17, 0xfa, 0xee, 0xd7, 0xcc, 0x35, 0x07, 0x07, 0xa7, 0x44, 0x3c, 0xc6,
  0x17, 0x1c, 0xc7, 0x1e, 0x13, 0xe5, 0xd2, 0xc5, 0x1d, 0x40, 0x01, 0xdf,
  0xf7, 0x35, 0x1a, 0x87, 0xf7, 0xec, 0xef, 0x0d, 0xfc, 0xc0, 0x16, 0x43,
  0x34, 0xed, 0x10, 0xd6, 0x12, 0xf6, 0xea, 0xf2, 0x35, 0x15, 0xe5, 0xfb,
  0xef, 0xed, 0xd7, 0x31, 0x30, 0x0b, 0x2c, 0xdd, 0xd6, 0xc1, 0xc9, 0x07,
  0x09, 0x0d, 0xd1, 0x15, 0xdf, 0xba, 0xc7, 0xb9, 0x1c, 0x02, 0x08, 0xdb,
  0x18, 0xbf, 0x10, 0xd5, 0x12, 0xf7, 0xbd, 0x1d, 0xe8, 0x4c, 0xe3, 0xe2,
  0x45, 0x29, 0xe0, 0xf6, 0x55, 0xdc, 0x24, 0xca, 0x22, 0x27, 0x8b, 0xed,
  0xd3, 0x13, 0x1e, 0x30, 0x27, 0x3a, 0x12, 0xec, 0x12, 0x12, 0xeb, 0xb7,
  0x2c, 0x06, 0xfb, 0xd8, 0x33, 0xc2, 0x0e, 0x07, 0x0d, 0xe1, 0x1d, 0x4f,
  0x11, 0xc7, 0xcd, 0x3d, 0x21, 0x55, 0x34, 0x12, 0x31, 0xd6, 0x17, 0x41,
  0x1c, 0x3a, 0x02, 0x1d, 0x3a, 0xf5, 0x35, 0xdc, 0xeb, 0xf6, 0x23, 0x2b,
  0x19, 0x33, 0xde, 0x07, 0x39, 0x32, 0x08, 0x26, 0x49, 0xe9, 0xcc, 0x36,
  0x03, 0xfa, 0xe5, 0x1a, 0xe5, 0x0f, 0xdf, 0xc9, 0x06, 0x00, 0x0e, 0xbc,
  0x20, 0xdc, 0xe3, 0xe3, 0xdc, 0xcc, 0xdf, 0x10, 0x1b, 0x46, 0xe7, 0xd8,
  0xf7, 0x12, 0xe3, 0xee, 0xe4, 0xfb, 0x60, 0x13, 0x36, 0xe0, 0xe5, 0xf6,
  0x01, 0x00, 0xc7, 0x0b, 0xd9, 0xc0, 0xdf, 0x24, 0x44, 0xf4, 0x99, 0x7b,
  0x2e, 0x13, 0x06, 0xdf, 0x36, 0xf5, 0x53, 0x05, 0x5b, 0x59, 0xd0, 0xd1,
  0x4f, 0xfa, 0xc5, 0xd5, 0xc0, 0x19, 0xa4, 0x15, 0x2a, 0xd5, 0xcb, 0x25,
  0x36, 0x04, 0x01, 0x16, 0x4c, 0xfb, 0x53, 0xfb, 0x93, 0x2b, 0x99, 0x1e,
  0xe2, 0x24, 0xc4, 0x33, 0xf0, 0x4f, 0x3d, 0x30, 0xb7, 0x2e, 0x72, 0x84,
  0xfb, 0xf2, 0x16, 0xeb, 0x06, 0xc5, 0x14, 0xdf, 0xcf, 0x30, 0x20, 0x26,
  0x1e, 0x17, 0xe9, 0xdb, 0x43, 0x41, 0x2b, 0x01, 0xf4, 0x41, 0x41, 0xc3,
  0x10, 0xd6, 0xca, 0x1b, 0xd8, 0xcd, 0x81, 0x26, 0xe9, 0xff, 0x05, 0xef,
  0xe4, 0xed, 0xf5, 0x06, 0x0d, 0x0e, 0x1e, 0x0a, 0x20, 0x24, 0xf5, 0xff,
  0x06, 0xe8, 0x0a, 0xf4, 0x1d, 0xed, 0xec, 0x04, 0x1a, 0x02, 0xe7, 0x0a,
  0x26, 0x08, 0x2a, 0xf1, 0xee, 0xf5, 0xe3, 0x01, 0x21, 0x06, 0xf8, 0x0a,
  0x2f, 0x16, 0x14, 0xe4, 0x0b, 0xfb, 0xe3, 0x09, 0x02, 0xe7, 0x18, 0xe8,
  0xeb, 0x40, 0xea, 0x3e, 0x1b, 0xfe, 0x11, 0xf7, 0x3f, 0xfd, 0xf9, 0x39,
  0x37, 0x15, 0x02, 0x26, 0xd3, 0x48, 0x1d, 0x33, 0x0f, 0x01, 0x1b, 0xeb,
  0xfb, 0x0e, 0xd3, 0x17, 0x2b, 0xf4, 0xf8, 0xec, 0xfd, 0x00, 0x1e, 0xf9,
  0x17, 0xe5, 0xf4, 0xfa, 0xcf, 0x02, 0x01, 0xe6, 0x18, 0xe9, 0x3a, 0xe5,
  0xed, 0x08, 0xe3, 0x16, 0x07, 0xda, 0xfa, 0xe3, 0xf2, 0xf4, 0xf9, 0x1c,
  0xcb, 0xea, 0xe1, 0xdc, 0x2e, 0x1b, 0xd1, 0x03, 0x24, 0x03, 0x1d, 0xfb,
  0x27, 0xfc, 0xd7, 0x3d, 0x10, 0x13, 0xf3, 0xdc, 0x1b, 0x07, 0xfb, 0xfc,
  0x05, 0x0b, 0xfa, 0x0e, 0x29, 0x01, 0x0a, 0x35, 0x0d, 0xfd, 0xf6, 0xe5,
  0xde, 0x0f, 0xe9, 0xbd, 0xeb, 0xf0, 0x09, 0x13, 0x01, 0xbd, 0xcb, 0x2f,
  0xfb, 0x15, 0x13, 0x0b, 0x14, 0x1a, 0x0f, 0xd3, 0xee, 0xce, 0xfd, 0xfb,
  0x54, 0x20, 0x54, 0x1d, 0x02, 0xe8, 0x1a, 0xe7, 0xe5, 0xeb, 0xe6, 0xff,
  0xf0, 0x13, 0xe6, 0xfe, 0x02, 0x2c, 0xf6, 0xf7, 0xca, 0xe8, 0x2b, 0xfe,
  0x11, 0x04, 0x1f, 0x12, 0x24, 0x1c, 0xd1, 0x02, 0xf1, 0xe4, 0xe4, 0xcb,
  0x10, 0xfa, 0x31, 0x24, 0x29, 0x01, 0x15, 0x1d, 0xf0, 0xf6, 0xf3, 0xff,
  0xd7, 0x1e, 0xea, 0xc8, 0xfc, 0xe2, 0x1a, 0xf7, 0x18, 0x19, 0x14, 0x0f,
  0x17, 0x03, 0x16, 0xde, 0xfb, 0xfe, 0x48, 0x81, 0xe0, 0xf3, 0x16, 0xee,
  0xf7, 0xe0, 0x12, 0x1d, 0x0e, 0xec, 0x15, 0xea, 0x10, 0x5a, 0x56, 0xf5,
  0xc8, 0x00, 0x27, 0x09, 0x23, 0xf0, 0xfd, 0x1c, 0xca, 0xea, 0xfc, 0xd6,
  0xe3, 0x25, 0x23, 0xdb, 0xc2, 0xe2, 0x06, 0x07, 0x1f, 0xc6, 0xf9, 0x24,
  0x01, 0xec, 0xf3, 0x02, 0xec, 0x08, 0x09, 0x18, 0xee, 0xfc, 0x26, 0xeb,
  0x0f, 0xe7, 0x2c, 0x4b, 0x05, 0x00, 0x1c, 0xf1, 0x28, 0xf9, 0x05, 0xd5,
  0x11, 0x12, 0x22, 0xdb, 0x22, 0x0d, 0x10, 0xf6, 0xe7, 0x16, 0x40, 0x0d,
  0x00, 0x36, 0x19, 0xdc, 0x04, 0xfa, 0xea, 0xfe, 0xee, 0xf8, 0xe8, 0x0e,
  0xe2, 0x0b, 0x15, 0x18, 0xee, 0x43, 0x42, 0x03, 0x37, 0x04, 0x26, 0xe4,
  0x03, 0xed, 0x3d, 0x0c, 0xf8, 0xe5, 0x17, 0x17, 0x18, 0x5b, 0x40, 0x17,
  0xf2, 0xd1, 0x1e, 0xe5, 0xf7, 0xf3, 0xff, 0x18, 0xd5, 0xd4, 0x39, 0x0e,
  0x13, 0x0a, 0xe3, 0x20, 0xec, 0x00, 0x2f, 0xf2, 0xda, 0xd5, 0xf0, 0x0b,
  0x23, 0x1c, 0xef, 0x25, 0x12, 0x1a, 0xe0, 0x10, 0x0f, 0xe4, 0x1d, 0x19,
  0xed, 0xff, 0xd9, 0xe3, 0x01, 0x31, 0x2f, 0x2e, 0xf2, 0x40, 0x42, 0x0d,
  0x08, 0x1d, 0x1b, 0x03, 0xef, 0x12, 0xea, 0x16, 0xf4, 0x40, 0xf5, 0x30,
  0x1f, 0x10, 0xe0, 0x1a, 0xf9, 0xfe, 0xc1, 0xef, 0xe8, 0xfe, 0x25, 0x2b,
  0xe5, 0x4f, 0xfe, 0x3e, 0xdc, 0x04, 0x0a, 0x4f, 0xe2, 0x3b, 0xf8, 0x17,
  0x12, 0x2c, 0x2d, 0xa2, 0x05, 0x27, 0xfc, 0x06, 0x17, 0x2f, 0x45, 0x1b,
  0x5b, 0x39, 0x09, 0x00, 0xd4, 0x02, 0x2e, 0x1e, 0xf9, 0x14, 0x07, 0x25,
  0xe1, 0x0c, 0xd8, 0xca, 0xfc, 0xfc, 0x55, 0xe5, 0x17, 0xf4, 0xe9, 0xea,
  0x2f, 0x0b, 0x17, 0x1a, 0x21, 0xf4, 0xe0, 0xb7, 0xe6, 0x10, 0x27, 0x0b,
  0x40, 0x2d, 0x1f, 0x19, 0xfc, 0x14, 0x0b, 0x37, 0x24, 0xd6, 0xdd, 0x19,
  0x58, 0x0c, 0xf8, 0x23, 0x22, 0x7c, 0x0b, 0xbe, 0x05, 0x00, 0xdb, 0x11,
  0x12, 0x14, 0xf1, 0x00, 0x25, 0x37, 0x2e, 0x27, 0xfa, 0x36, 0x20, 0xfe,
  0x0f, 0xd6, 0xc8, 0xe9, 0x2b, 0xe7, 0xf7, 0x11, 0x03, 0x0a, 0x59, 0xe4,
  0xfe, 0x13, 0x4d, 0x02, 0x20, 0xd5, 0xa7, 0x9a, 0x0e, 0xbd, 0x37, 0xa5,
  0xef, 0xfb, 0x33, 0xa8, 0x49, 0xed, 0xd1, 0x26, 0x3b, 0x23, 0xf7, 0xac,
  0xd9, 0xef, 0xea, 0xbb, 0x15, 0xc8, 0x12, 0xe5, 0xed, 0xca, 0xf2, 0x63,
  0x0e, 0x2a, 0xcc, 0x1e, 0x27, 0xb4, 0xd3, 0xfe, 0x36, 0x09, 0x11, 0x1a,
  0x09, 0x79, 0xfb, 0x25, 0x11, 0x14, 0x1b, 0xbd, 0xe4, 0xd6, 0xb2, 0xd6,
  0xba, 0xcf, 0x52, 0xce, 0x0c, 0xed, 0xe7, 0xfe, 0xeb, 0x13, 0xd1, 0xe3,
  0x33, 0xbe, 0xd5, 0xb5, 0xca, 0xfe, 0x17, 0x0c, 0xf3, 0x0c, 0xec, 0xe0,
  0xdd, 0xf4, 0xde, 0x15, 0x1b, 0xd7, 0x11, 0x0a, 0xa4, 0xdf, 0x1f, 0x02,
  0x06, 0xcb, 0xe8, 0x35, 0xe8, 0xd0, 0x14, 0x0d, 0xf0, 0x4e, 0xe2, 0xbd,
  0xcc, 0x18, 0x81, 0xe2, 0xb3, 0xf0, 0xfe, 0xe3, 0x17, 0x29, 0xd6, 0x30,
  0xe9, 0x01, 0xf4, 0xca, 0x3a, 0x14, 0xec, 0xe8, 0x02, 0xe3, 0xe6, 0xbe,
  0x23, 0xcc, 0xf5, 0xd4, 0xdb, 0xfc, 0xe2, 0xc1, 0xf0, 0x0f, 0xd5, 0x2f,
  0xf5, 0xc4, 0x19, 0xb2, 0xf6, 0xbc, 0xf8, 0x0e, 0xfc, 0x43, 0xef, 0x19,
  0x18, 0x1c, 0xd7, 0x25, 0xf8, 0x02, 0x24, 0xc3, 0x05, 0xdb, 0x4e, 0x43,
  0xf2, 0xe3, 0xbe, 0x57, 0xf7, 0x25, 0xb2, 0xef, 0xf6, 0x1c, 0xf7, 0xc9,
  0xf0, 0xe2, 0x47, 0x47, 0x30, 0x1c, 0xc5, 0x25, 0xf9, 0xe9, 0xd2, 0x5d,
  0xce, 0x23, 0xf3, 0x00, 0x2e, 0xf8, 0x0b, 0x04, 0xd4, 0x30, 0x33, 0x18,
  0x1b, 0x2f, 0xae, 0x11, 0x13, 0x48, 0x2c, 0x1d, 0x1c, 0x27, 0x4d, 0x48,
  0x0c, 0x0d, 0x0e, 0x02, 0x06, 0x15, 0x2a, 0x40, 0x34, 0xf5, 0xdb, 0x08,
  0x00, 0x36, 0x2b, 0x37, 0x10, 0x69, 0x6f, 0xdf, 0xe2, 0x13, 0x16, 0xf0,
  0x0b, 0xe1, 0xdb, 0xc6, 0x09, 0x50, 0xfd, 0x17, 0x0c, 0x2e, 0x15, 0xd1,
  0x20, 0xeb, 0x07, 0x00, 0xef, 0x1d, 0xfb, 0xe7, 0x3d, 0x5f, 0x2e, 0xfd,
  0x10, 0x57, 0x76, 0xd8, 0xf5, 0x00, 0x1e, 0xee, 0x31, 0xd6, 0x1c, 0x22,
  0x01, 0x04, 0x11, 0xe2, 0x0d, 0x13, 0xe2, 0xb2, 0x19, 0x00, 0xc7, 0x0a,
  0xd7, 0x4c, 0xd8, 0x28, 0xef, 0x05, 0x22, 0xf6, 0x33, 0x11, 0x46, 0x3f,
  0x19, 0x0d, 0x3d, 0xbe, 0x03, 0x26, 0x31, 0x17, 0xc0, 0xf5, 0x34, 0xe0,
  0xef, 0xd8, 0xd9, 0x11, 0xf9, 0x1b, 0x3b, 0xe1, 0x1f, 0xfc, 0x17, 0xee,
  0xdc, 0x21, 0xd6, 0x1d, 0xfe, 0xfe, 0xc7, 0x1e, 0x40, 0x07, 0x26, 0xd4,
  0x42, 0xd6, 0xf0, 0x05, 0xf9, 0xfb, 0xe4, 0xed, 0xf6, 0x33, 0x29, 0x2f,
  0xf4, 0xdb, 0xf3, 0x11, 0xeb, 0x4e, 0x2c, 0xec, 0x0d, 0x27, 0xe8, 0xff,
  0x2c, 0x4e, 0x24, 0x0f, 0x44, 0x0f, 0x0f, 0xb5, 0x02, 0x49, 0x33, 0x17,
  0xd1, 0xef, 0xef, 0x2e, 0xd3, 0x40, 0x37, 0x18, 0xf2, 0x34, 0x4b, 0xf7,
  0x03, 0x10, 0xce, 0x45, 0xb7, 0xd2, 0x17, 0xed, 0x91, 0xfd, 0xef, 0xa3,
  0xfc, 0xe8, 0x77, 0xf0, 0xe4, 0xce, 0x0d, 0x01, 0xbd, 0xbd, 0xcf, 0x2c,
  0xa9, 0xb6, 0xde, 0x73, 0xc6, 0x0c, 0x18, 0x0e, 0xe3, 0x09, 0x22, 0x65,
  0x07, 0x2e, 0x29, 0x10, 0x31, 0x31, 0xc9, 0x01, 0x33, 0x0c, 0x05, 0x09,
  0x1a, 0xed, 0x09, 0x05, 0x1c, 0xcd, 0x05, 0x23, 0xc1, 0xd9, 0xb8, 0xe9,
  0x67, 0x31, 0x22, 0x58, 0x20, 0x16, 0x23, 0x04, 0xfb, 0xd9, 0x26, 0xf3,
  0xfc, 0x01, 0xb1, 0xc9, 0x0d, 0x37, 0x31, 0xdb, 0xea, 0x3a, 0x51, 0xd8,
  0xdf, 0xd3, 0xfb, 0x16, 0xfc, 0xd3, 0x0d, 0xbc, 0x2b, 0x12, 0x0b, 0xb2,
  0xb0, 0xd6, 0xc8, 0xf9, 0x9c, 0x01, 0xd7, 0x58, 0x00, 0x03, 0x06, 0x48,
  0xea, 0xf0, 0x13, 0xfc, 0xb3, 0x2f, 0xeb, 0xb4, 0xf5, 0xf3, 0x8c, 0xef,
  0xd9, 0x99, 0xb5, 0x02, 0xfd, 0x0f, 0xf1, 0x07, 0xed, 0x20, 0xd8, 0x0f,
  0x4f, 0xfe, 0xf3, 0xff, 0x21, 0x22, 0xd9, 0x45, 0x21, 0xd8, 0xda, 0xf2,
  0x07, 0x22, 0x29, 0xec, 0x40, 0x34, 0x21, 0x1a, 0x1a, 0x31, 0xf8, 0xbe,
  0x22, 0xe6, 0x02, 0x25, 0xcf, 0xdd, 0xed, 0x93, 0xc4, 0xc4, 0xf9, 0x6a,
  0xc5, 0x34, 0xf2, 0x4e, 0xcd, 0x0e, 0x07, 0x07, 0xf5, 0xef, 0xb8, 0x08,
  0x2e, 0x12, 0x2b, 0xf5, 0x29, 0x0d, 0x54, 0xd5, 0xfc, 0xdd, 0xb9, 0x18,
  0x30, 0xdb, 0xa4, 0xeb, 0x37, 0xca, 0x1e, 0x68, 0xda, 0x35, 0x64, 0xc4,
  0xf2, 0xe3, 0x0b, 0x2f, 0xe3, 0xc0, 0xc2, 0xad, 0x07, 0x58, 0x05, 0xe9,
  0x1f, 0x29, 0xea, 0x10, 0x64, 0x16, 0x24, 0x32, 0x35, 0xf2, 0x3c, 0x4f,
  0x25, 0x27, 0x65, 0x40, 0xc2, 0x4e, 0x37, 0xd0, 0x18, 0xef, 0x27, 0x3d,
  0x29, 0xf9, 0x31, 0x27, 0xc7, 0x19, 0x65, 0x40, 0xf0, 0x04, 0xf1, 0x2e,
  0xb5, 0xe3, 0xdb, 0xf6, 0x29, 0xe1, 0x00, 0x46, 0xd4, 0xe1, 0xec, 0x0c,
  0xa7, 0xe3, 0xcc, 0x95, 0xcf, 0xda, 0x38, 0xd6, 0x00, 0xd5, 0x0a, 0x54,
  0xec, 0xfa, 0xf5, 0xf2, 0x23, 0x79, 0x31, 0xcf, 0x2e, 0xcc, 0x7f, 0xf4,
  0x6b, 0xc4, 0xf8, 0x4f, 0x0a, 0xe7, 0x07, 0xef, 0x05, 0x28, 0x3a, 0x05,
  0x0e, 0xe9, 0x22, 0xe7, 0x0d, 0xf6, 0x39, 0xdf, 0xee, 0xfc, 0x0e, 0x25,
  0x05, 0x4c, 0x22, 0xe7, 0x00, 0xf3, 0xe9, 0xe7, 0x34, 0xcc, 0xd4, 0xeb,
  0x0b, 0x2b, 0x45, 0xd4, 0x4f, 0x06, 0x41, 0xdb, 0x9e, 0xd9, 0xa4, 0xe4,
  0xe6, 0x09, 0xa5, 0x16, 0xeb, 0x02, 0x15, 0xfe, 0x0e, 0x32, 0x23, 0xc2,
  0xdc, 0xd6, 0xb4, 0xd5, 0xf4, 0x0c, 0xc8, 0xf7, 0xf2, 0x0b, 0x2d, 0xfb,
  0xeb, 0xfe, 0x12, 0xf3, 0x02, 0x03, 0xe3, 0xfc, 0xff, 0x0d, 0xc8, 0xf8,
  0x23, 0x0a, 0xfd, 0x1e, 0xf9, 0x35, 0x51, 0xd1, 0xfb, 0x29, 0x54, 0xfe,
  0x16, 0xcc, 0x06, 0x03, 0x22, 0x29, 0x29, 0xe8, 0x27, 0x33, 0x1c, 0x2c,
  0xcb, 0xf4, 0x47, 0xfe, 0x3e, 0xfd, 0xf7, 0x1f, 0xe4, 0x1a, 0x3a, 0x1d,
  0x01, 0x2d, 0x23, 0xbf, 0xda, 0x12, 0xf9, 0x2d, 0x13, 0x05, 0xfd, 0x27,
  0x0b, 0x28, 0x12, 0xfd, 0x37, 0xec, 0xfe, 0x1a, 0x22, 0x0b, 0xd7, 0x2d,
  0x39, 0x2e, 0xf2, 0xf7, 0x30, 0x0a, 0xf8, 0x24, 0x42, 0xf7, 0xde, 0x55,
  0x34, 0xee, 0xe2, 0x2b, 0xcb, 0x06, 0x2f, 0xb3, 0x02, 0xf5, 0x04, 0x07,
  0xff, 0x41, 0x2b, 0xdb, 0x25, 0x23, 0x43, 0xdf, 0x0b, 0xf4, 0x27, 0x33,
  0xf9, 0xeb, 0x37, 0x2c, 0x1f, 0x0f, 0x5b, 0xf3, 0xf5, 0x12, 0x16, 0x0f,
  0x2e, 0xe7, 0x03, 0x35, 0xfb, 0x1a, 0xe1, 0xe2, 0x0d, 0x2a, 0x1a, 0xe2,
  0x2a, 0xee, 0x10, 0xf2, 0x52, 0x34, 0xe3, 0x59, 0xf0, 0x28, 0xea, 0x39,
  0x1f, 0xd3, 0x02, 0x40, 0x05, 0x29, 0xea, 0x04, 0x4a, 0x26, 0xf9, 0x0e,
  0x2b, 0xf9, 0xf0, 0xe7, 0x10, 0x05, 0xf1, 0x02, 0xff, 0x02, 0x0e, 0x2c,
  0xc4, 0x37, 0x25, 0xfa, 0xe2, 0x28, 0x36, 0x22, 0xff, 0x51, 0x5a, 0xfd,
  0x05, 0xff, 0x03, 0xf6, 0x18, 0xf6, 0x22, 0x11, 0x06, 0xeb, 0x18, 0xd0,
  0x08, 0x6a, 0x2d, 0xdb, 0xd3, 0xdd, 0x25, 0xe1, 0xfc, 0xdd, 0x14, 0x5a,
  0xca, 0xf8, 0x55, 0xe5, 0x22, 0x40, 0x19, 0xf2, 0xcf, 0x15, 0x40, 0x0a,
  0x3e, 0xd9, 0xfd, 0x34, 0x02, 0x1b, 0x06, 0x17, 0xd4, 0x0a, 0xcb, 0x52,
  0xf4, 0x29, 0xfe, 0x26, 0x59, 0x06, 0x22, 0x14, 0x0f, 0x28, 0xe1, 0x1f,
  0x05, 0x36, 0x22, 0xfc, 0x1e, 0x0e, 0x5c, 0xf4, 0xfb, 0x2f, 0x44, 0x1c,
  0xc7, 0xf9, 0x3b, 0x09, 0xdb, 0x36, 0x2f, 0x22, 0x3e, 0x28, 0x2a, 0x02,
  0xcc, 0x14, 0x1f, 0x11, 0xc1, 0x08, 0x32, 0xe9, 0xe8, 0x22, 0x2e, 0x1b,
  0x51, 0xd5, 0x3a, 0x15, 0xf0, 0xeb, 0xf1, 0xef, 0xb8, 0xb9, 0x06, 0x39,
  0x26, 0xd2, 0x81, 0x40, 0x36, 0xe4, 0x30, 0x24, 0xde, 0x46, 0xee, 0x0b,
  0x2c, 0x07, 0xce, 0x0c, 0xef, 0xc2, 0xbf, 0x48, 0x49, 0x01, 0x16, 0xd5,
  0xcd, 0x25, 0x2f, 0x0c, 0xf2, 0xd4, 0xd1, 0xd1, 0xed, 0xdf, 0xf9, 0x02,
  0xfe, 0x2d, 0xd6, 0xdd, 0xaf, 0xec, 0x12, 0xeb, 0x13, 0xf0, 0x35, 0xe2,
  0x1c, 0xde, 0x25, 0xe8, 0xbc, 0x39, 0xcc, 0x24, 0x27, 0x12, 0x17, 0x41,
  0x33, 0x04, 0x41, 0xeb, 0x10, 0x46, 0x21, 0x28, 0x36, 0xea, 0xc1, 0x1f,
  0x3d, 0x09, 0x1c, 0xd1, 0xe0, 0x01, 0x27, 0xe1, 0xdb, 0x20, 0xd7, 0x10,
  0x37, 0x33, 0x07, 0x30, 0x1a, 0x06, 0x73, 0xee, 0x1c, 0x1d, 0x28, 0x5b,
  0xdb, 0xf2, 0xc2, 0x5f, 0x3d, 0x26, 0x6b, 0xf4, 0x1c, 0x22, 0x1a, 0x2b,
  0x0b, 0x0b, 0xf8, 0x2f, 0x43, 0x37, 0xeb, 0x62, 0x16, 0x2d, 0x3d, 0xf8,
  0xf2, 0x3d, 0x04, 0x06, 0xfb, 0xc8, 0xcc, 0xc8, 0xf6, 0xff, 0xb5, 0xeb,
  0xeb, 0x17, 0x0e, 0x01, 0xf7, 0x88, 0x2e, 0x14, 0x12, 0x44, 0xc9, 0xcf,
  0xcd, 0x2a, 0x29, 0x21, 0xd2, 0xed, 0xe6, 0xc5, 0x43, 0x05, 0x2c, 0x5e,
  0xee, 0x27, 0xf5, 0x1c, 0x35, 0xc9, 0xf0, 0xa6, 0x13, 0x31, 0x3c, 0xb7,
  0x05, 0x08, 0x4c, 0x06, 0xef, 0xd8, 0x00, 0xe9, 0x0b, 0x04, 0xd5, 0xe6,
  0x12, 0xf8, 0xe3, 0xbe, 0xf7, 0x33, 0x35, 0x34, 0xd7, 0x0f, 0xda, 0xb5,
  0xf8, 0xa9, 0xb5, 0xee, 0x1a, 0xea, 0x0c, 0xb7, 0xdf, 0xe7, 0xe7, 0xcc,
  0xe8, 0xeb, 0xc1, 0xd2, 0xf8, 0x1d, 0x52, 0xf8, 0xe4, 0x1b, 0x33, 0xb5,
  0xb6, 0xc3, 0x10, 0x34, 0xca, 0xdb, 0x9e, 0xcf, 0x2f, 0xd9, 0x3d, 0xf0,
  0xdb, 0x0a, 0x1d, 0x11, 0x1b, 0x13, 0x24, 0x1c, 0xf4, 0xe9, 0xb6, 0xe0,
  0xf9, 0xdd, 0xd0, 0xf7, 0xcc, 0xbd, 0xe6, 0xa0, 0xd4, 0x0f, 0xc9, 0xe9,
  0xda, 0xdc, 0x11, 0xb4, 0xfe, 0x24, 0x25, 0xfb, 0xcc, 0xdc, 0xa8, 0xa9,
  0x8f, 0x20, 0xeb, 0x07, 0xcf, 0xcc, 0xc4, 0xb4, 0xde, 0x0b, 0x21, 0xe1,
  0xee, 0xad, 0xd6, 0xd9, 0xd6, 0xce, 0xf1, 0xa7, 0xee, 0x24, 0x68, 0x39,
  0x41, 0x1e, 0x34, 0xe9, 0x0b, 0x1c, 0x24, 0x0b, 0x14, 0xbe, 0xd3, 0xe2,
  0xfd, 0x03, 0x39, 0xe5, 0x2e, 0x7f, 0x2c, 0xcd, 0xca, 0xb8, 0x60, 0x10,
  0x02, 0x2a, 0xff, 0x48, 0xe5, 0x02, 0x16, 0x10, 0x1f, 0x08, 0x4f, 0xcd,
  0xac, 0x1e, 0xeb, 0x1d, 0x2e, 0xb4, 0x95, 0x1d, 0x3d, 0xfc, 0xd6, 0x08,
  0xe6, 0x0b, 0x38, 0xf1, 0x0f, 0xe9, 0xa1, 0xbd, 0xcb, 0xfb, 0x06, 0x12,
  0x0d, 0x16, 0x50, 0xf4, 0x36, 0x36, 0x09, 0x2b, 0x09, 0x1c, 0xe5, 0x18,
  0xbe, 0x2b, 0xbc, 0x23, 0xe3, 0xfa, 0x58, 0x26, 0x2f, 0x06, 0x6f, 0xf1,
  0x82, 0xd4, 0x4b, 0x32, 0x5b, 0xb1, 0x39, 0x21, 0xc5, 0xd1, 0x03, 0xc8,
  0xc0, 0x2a, 0xde, 0x9e, 0xef, 0xda, 0x43, 0xc0, 0x1a, 0xc0, 0x12, 0x33,
  0xc9, 0x1f, 0x1e, 0x07, 0xfc, 0x37, 0x13, 0x4d, 0xf1, 0xeb, 0xf6, 0x1c,
  0x2d, 0xd7, 0xf0, 0x16, 0x52, 0xef, 0xec, 0xe3, 0x2b, 0x3a, 0x0d, 0x0c,
  0x0d, 0x37, 0x0d, 0xcb, 0x11, 0x11, 0xe7, 0x20, 0x07, 0xe2, 0x1c, 0xe6,
  0x25, 0x1d, 0x28, 0xcf, 0xd6, 0xf1, 0x21, 0x4e, 0xf1, 0x31, 0x40, 0x45,
  0xe9, 0x13, 0x04, 0xf1, 0x23, 0xfa, 0x0c, 0xf8, 0x2b, 0x02, 0x1b, 0xf4,
  0xf5, 0x01, 0x18, 0x1b, 0x00, 0xf0, 0xeb, 0x1e, 0xf1, 0xfb, 0x11, 0xf5,
  0x21, 0x16, 0x53, 0xea, 0x10, 0x13, 0x15, 0x67, 0x13, 0x23, 0x13, 0xf0,
  0x16, 0x28, 0x00, 0xe7, 0x14, 0x23, 0x20, 0xf1, 0x11, 0x15, 0x08, 0x07,
  0x2d, 0xf0, 0xe5, 0xed, 0x1a, 0xe6, 0x0a, 0xc0, 0xfb, 0x1f, 0x03, 0x1d,
  0x23, 0x15, 0x05, 0x29, 0xfb, 0x1b, 0x1d, 0xf3, 0x27, 0x0a, 0xf5, 0xc8,
  0x00, 0xdc, 0xf5, 0xfe, 0xff, 0x20, 0x1c, 0x32, 0x01, 0x1f, 0x08, 0x22,
  0x19, 0x29, 0x48, 0xe9, 0x08, 0x0b, 0x7f, 0xec, 0x29, 0xdb, 0x03, 0x0d,
  0x06, 0xe9, 0xfe, 0xdf, 0x13, 0x25, 0x17, 0xed, 0x05, 0x21, 0x29, 0xee,
  0x2a, 0xe4, 0x08, 0x0e, 0x0e, 0x1b, 0xf2, 0xe8, 0xe8, 0x1b, 0xf9, 0xde,
  0xf5, 0x1d, 0x44, 0x02, 0x20, 0xf4, 0x0a, 0x44, 0xe3, 0x08, 0x0a, 0xe7,
  0xf5, 0xe8, 0x0e, 0xcf, 0x1b, 0xf0, 0x13, 0x16, 0xfe, 0x11, 0x06, 0x3f,
  0xec, 0xea, 0xea, 0x0a, 0x04, 0x19, 0x0d, 0x09, 0xfe, 0xf5, 0x0a, 0x10,
  0xf9, 0x22, 0xfd, 0xe3, 0xfd, 0xe2, 0x01, 0x01, 0xeb, 0x35, 0x2e, 0xff,
  0x1d, 0xf8, 0x2c, 0xfb, 0xe6, 0x04, 0x00, 0x0e, 0xc8, 0xe3, 0x05, 0xe7,
  0xf5, 0x22, 0x0b, 0xfe, 0xf8, 0xfc, 0x3c, 0x06, 0xf0, 0xed, 0x01, 0xf8,
  0xd2, 0xf6, 0x00, 0x00, 0xd1, 0xf2, 0xf7, 0x3d, 0x11, 0x03, 0xf4, 0x10,
  0x07, 0x14, 0x19, 0xdc, 0xe5, 0xf3, 0x11, 0x13, 0xfd, 0x06, 0x12, 0x19,
  0x20, 0x22, 0x0a, 0x26, 0xf1, 0xfe, 0x0c, 0x08, 0x03, 0x0a, 0x18, 0x2f,
  0xcd, 0xdd, 0x13, 0x2e, 0x17, 0xfb, 0x05, 0x04, 0x18, 0xeb, 0x01, 0x03,
  0x0d, 0xdc, 0x27, 0x11, 0x00, 0x1a, 0xfc, 0x01, 0x1b, 0xf0, 0x09, 0xe5,
  0xf1, 0x0d, 0xe0, 0xdc, 0xd8, 0x00, 0x13, 0x29, 0xe7, 0xf6, 0xb6, 0x21,
  0x0d, 0xe5, 0xfe, 0x39, 0xe5, 0x2d, 0x07, 0xdc, 0x2d, 0x27, 0x10, 0x0e,
  0x04, 0xfc, 0xf0, 0x28, 0x12, 0x35, 0xff, 0x2e, 0xfc, 0x1d, 0xf5, 0xf3,
  0x19, 0x15, 0xf2, 0x23, 0x13, 0xfc, 0x1f, 0xdb, 0x18, 0x08, 0x2b, 0xf5,
  0xfa, 0xe3, 0x0d, 0x07, 0xef, 0xf7, 0x2d, 0x0b, 0xff, 0x06, 0xf0, 0xf4,
  0xeb, 0x2a, 0x36, 0x03, 0x15, 0x1f, 0x2e, 0x3f, 0x10, 0xfb, 0x09, 0x09,
  0x27, 0x16, 0xc5, 0xe2, 0x19, 0xf4, 0xee, 0x19, 0xf5, 0x24, 0xdc, 0xed,
  0x19, 0x15, 0xf5, 0x0c, 0x17, 0xe9, 0xe0, 0x05, 0x1a, 0x18, 0xf3, 0x1d,
  0xe4, 0x33, 0x1d, 0x15, 0x13, 0x22, 0x1b, 0xfe, 0xd8, 0xd7, 0xf5, 0x10,
  0xf0, 0xf6, 0xf4, 0xe8, 0xf5, 0x15, 0xfa, 0x09, 0x28, 0xed, 0x09, 0x18,
  0x10, 0xec, 0x06, 0xe3, 0xe1, 0xf8, 0x12, 0x1e, 0x13, 0xe9, 0x0b, 0x21,
  0x1e, 0xfa, 0x0c, 0xf3, 0x00, 0xec, 0xfa, 0x97, 0x05, 0xfa, 0x0e, 0xfa,
  0xf8, 0x02, 0xfe, 0x04, 0xec, 0x16, 0xc7, 0xee, 0xb8, 0x93, 0x89, 0xa9,
  0x1c, 0xe6, 0x09, 0x1a, 0xd9, 0xdb, 0x3b, 0x1a, 0x05, 0xe6, 0x1c, 0xf3,
  0x83, 0xbe, 0xa1, 0xa5, 0xa6, 0xf8, 0x06, 0x00, 0xe6, 0x9d, 0x03, 0x30,
  0xf1, 0xeb, 0xa5, 0xf8, 0x9a, 0xd4, 0x9e, 0x4b, 0xf0, 0x22, 0x2a, 0xef,
  0xe9, 0xe3, 0xca, 0x0d, 0x1a, 0xda, 0xf3, 0xca, 0x96, 0xf4, 0xf6, 0xe9,
  0xac, 0xde, 0x1c, 0x0d, 0x30, 0x04, 0xcf, 0x1e, 0xf0, 0x28, 0xb5, 0xf3,
  0xd4, 0xe3, 0x59, 0x17, 0x56, 0xc3, 0x16, 0xd9, 0x4e, 0x4e, 0xe0, 0xbf,
  0xa8, 0xde, 0x01, 0xdd, 0xd7, 0xee, 0x07, 0xfc, 0xdb, 0xd3, 0xa1, 0x10,
  0xe4, 0x39, 0xdf, 0x1c, 0x0b, 0xe4, 0x3d, 0xb9, 0x11, 0xa4, 0xe3, 0x51,
  0x98, 0xc0, 0x86, 0xa3, 0xe3, 0xe9, 0x90, 0x04, 0x92, 0xc3, 0xe0, 0xcc,
  0x04, 0xfe, 0x33, 0x01, 0xb2, 0xb3, 0x38, 0xdc, 0x02, 0xbc, 0xe5, 0x3c,
  0xa5, 0xef, 0xaf, 0xe7, 0x1d, 0xa7, 0xc5, 0x59, 0xe6, 0xe9, 0x3a, 0x20,
  0xdc, 0x29, 0xa4, 0xb7, 0xea, 0x13, 0x39, 0xb9, 0x05, 0xe1, 0x2d, 0x3c,
  0xac, 0xb8, 0xbd, 0x00, 0xc5, 0x03, 0x2c, 0x22, 0xaf, 0xd4, 0xbc, 0xd1,
  0xa8, 0x0e, 0x3d, 0x17, 0xf6, 0xdb, 0xe5, 0x81, 0xb8, 0xac, 0x92, 0xf6,
  0xf3, 0x2e, 0xb6, 0xe1, 0xda, 0x33, 0xf1, 0xdc, 0xa3, 0x37, 0xe1, 0x3d,
  0xd5, 0x1d, 0xe1, 0xa9, 0x2d, 0x9e, 0x1d, 0xd8, 0xff, 0x3f, 0x32, 0x38,
  0xf1, 0xf6, 0xb5, 0xeb, 0xb5, 0xb8, 0xed, 0xad, 0x0e, 0x3d, 0xfd, 0x9a,
  0xcc, 0xdb, 0xd0, 0xf6, 0x41, 0xcb, 0x2d, 0x37, 0xf9, 0x03, 0xb6, 0x1e,
  0xa9, 0x9d, 0xfa, 0x8a, 0xbb, 0xee, 0xfe, 0xa5, 0xfb, 0xf5, 0x31, 0xb8,
  0xb4, 0x01, 0x10, 0x29, 0x4b, 0x1e, 0x29, 0x26, 0xea, 0x5b, 0xc7, 0x19,
  0x00, 0xe6, 0xad, 0x05, 0xc5, 0xd1, 0xb4, 0xa4, 0x18, 0xc3, 0xfb, 0xfd,
  0xa0, 0x2c, 0x2f, 0x28, 0xd4, 0xfa, 0x42, 0xb5, 0x1d, 0xc8, 0xf4, 0xd5,
  0x4f, 0xb6, 0x01, 0xd2, 0xdd, 0x24, 0xeb, 0xc7, 0x26, 0xf5, 0xc4, 0xd0,
  0xcf, 0xbc, 0xc0, 0x2a, 0xe8, 0x3d, 0x16, 0x17, 0xc6, 0xc7, 0x10, 0xa8,
  0xde, 0xc9, 0xdb, 0x2a, 0xbb, 0xe2, 0x15, 0x44, 0xa4, 0x9e, 0x43, 0x0e,
  0xab, 0xe0, 0xc0, 0xe0, 0xee, 0x2c, 0x08, 0x26, 0xb1, 0x0b, 0x37, 0xff,
  0xd9, 0x4b, 0xfb, 0xba, 0x11, 0xe7, 0xc7, 0xe6, 0x19, 0x2f, 0x53, 0x0f,
  0x14, 0x59, 0xdd, 0x20, 0x17, 0x04, 0x14, 0xb5, 0x0f, 0x00, 0x3d, 0x9e,
  0x0f, 0xf0, 0x11, 0xf7, 0xad, 0xc9, 0x1a, 0x52, 0x31, 0xb0, 0x38, 0x0a,
  0xf7, 0x2d, 0xfd, 0x0f, 0x44, 0x3c, 0xd1, 0x2e, 0xbb, 0xef, 0xe8, 0x38,
  0xf4, 0x1f, 0x0c, 0xdd, 0x26, 0x03, 0x20, 0xf8, 0xec, 0x32, 0x11, 0xd8,
  0x2c, 0xe9, 0xae, 0xd2, 0xb4, 0x17, 0xf1, 0x8e, 0x0b, 0x5a, 0xce, 0xbb,
  0x30, 0xce, 0xb3, 0x2a, 0x07, 0xe0, 0xee, 0x25, 0x18, 0x11, 0x2d, 0x31,
  0xfb, 0x28, 0xea, 0x11, 0xec, 0xeb, 0xd7, 0xe4, 0xe2, 0x03, 0xb9, 0xb1,
  0xf1, 0x13, 0xfb, 0x13, 0xe5, 0x1a, 0xcd, 0x1e, 0xd6, 0x2b, 0xdd, 0x21,
  0xd9, 0x87, 0xdb, 0x81, 0xf5, 0xf2, 0xf0, 0x07, 0xe0, 0xfa, 0x13, 0x0c,
  0xd1, 0x06, 0x0e, 0xe8, 0x0b, 0xe1, 0xbb, 0xd5, 0x01, 0x1b, 0x0b, 0x03,
  0xf4, 0x3d, 0x53, 0xa6, 0xd6, 0xda, 0x14, 0x2e, 0xe6, 0xdb, 0xe9, 0xe5,
  0xf5, 0x08, 0x37, 0xe5, 0xe9, 0x08, 0xf6, 0xd8, 0xbb, 0xfa, 0xf5, 0x0b,
  0x07, 0xe0, 0x0e, 0xec, 0xd6, 0xcd, 0xf5, 0xcf, 0xb9, 0xd2, 0xb1, 0xcf,
  0x14, 0xfe, 0xac, 0x3b, 0x01, 0xde, 0xdd, 0xe6, 0x12, 0x2d, 0xff, 0x2f,
  0xd0, 0xe2, 0xca, 0x49, 0x29, 0xe4, 0xb2, 0xf6, 0x11, 0x27, 0xea, 0xea,
  0xde, 0x13, 0x31, 0xef, 0x18, 0xcd, 0x1b, 0x3b, 0xdb, 0xe8, 0x19, 0x3a,
  0x0c, 0xe5, 0x41, 0xe3, 0xd8, 0xef, 0xf6, 0xd5, 0x13, 0x27, 0x4a, 0xd7,
  0xe4, 0x16, 0x34, 0x0c, 0x35, 0xc1, 0x2e, 0x18, 0xf0, 0x33, 0x2c, 0xc7,
  0xf4, 0x05, 0x20, 0x9f, 0xfd, 0xe2, 0xa4, 0x17, 0x35, 0xf7, 0x10, 0x4a,
  0x40, 0xfb, 0xbb, 0x11, 0xe7, 0xe2, 0xf0, 0x0e, 0x0f, 0xed, 0xe5, 0x43,
  0x26, 0x30, 0xe1, 0x18, 0x09, 0xfd, 0xd2, 0x29, 0x2d, 0xdf, 0x1e, 0xdf,
  0x08, 0x38, 0xbd, 0x2c, 0xff, 0x2c, 0x29, 0xdb, 0x23, 0xd5, 0xfc, 0xef,
  0x45, 0x14, 0x02, 0xbe, 0x18, 0xf8, 0x28, 0xd5, 0xf9, 0x13, 0xea, 0x0b,
  0xd6, 0x26, 0xee, 0x06, 0xed, 0x00, 0x08, 0xff, 0x2b, 0xf9, 0x16, 0xf2,
  0x25, 0x28, 0x1c, 0xff, 0x0e, 0x0d, 0xfc, 0x0a, 0xf1, 0xe1, 0xd8, 0x62,
  0x0b, 0x34, 0xc2, 0xfb, 0xcd, 0xdc, 0xf2, 0x10, 0x15, 0x26, 0xd9, 0x1e,
  0xc2, 0xb9, 0xc0, 0x07, 0x2e, 0x28, 0xde, 0x25, 0x00, 0x0c, 0xd9, 0x23,
  0x23, 0x00, 0xfe, 0xe0, 0x29, 0xd6, 0x3c, 0xb8, 0xeb, 0x2c, 0xd6, 0x2f,
  0xd8, 0x07, 0x2f, 0x12, 0xf2, 0xe2, 0x1f, 0xd6, 0x38, 0x12, 0xd2, 0x10,
  0x2c, 0x16, 0x45, 0xd2, 0x0c, 0x26, 0xfd, 0xe1, 0x09, 0xcb, 0x23, 0x14,
  0xf7, 0xf9, 0xb0, 0x3c, 0x2b, 0x27, 0x20, 0x36, 0x00, 0x46, 0x08, 0x00,
  0x13, 0xee, 0xe0, 0x00, 0xe8, 0xeb, 0xda, 0x2f, 0x12, 0x20, 0x1d, 0x00,
  0xd9, 0x15, 0x0e, 0x29, 0x23, 0xed, 0x0e, 0xf6, 0xe8, 0xf1, 0x09, 0x3b,
  0x3e, 0x22, 0x0a, 0xed, 0xe5, 0x56, 0x0e, 0xf9, 0x26, 0xfd, 0xf7, 0x20,
  0x05, 0xf6, 0x07, 0x07, 0x12, 0xe1, 0x2c, 0xfa, 0x0e, 0xdc, 0x21, 0x21,
  0x0f, 0xe9, 0x0b, 0xf2, 0x18, 0x30, 0x2e, 0x19, 0x24, 0xda, 0x29, 0xef,
  0x34, 0x0a, 0xf1, 0x0b, 0xee, 0x1b, 0xfd, 0xf1, 0x1c, 0x0d, 0xe5, 0x0a,
  0xf6, 0xcd, 0x20, 0x20, 0x17, 0xeb, 0x29, 0x0d, 0x14, 0x13, 0x2c, 0xfd,
  0xc9, 0xfb, 0x14, 0x51, 0x08, 0x10, 0x04, 0x01, 0xf5, 0xf4, 0x22, 0xfc,
  0xf8, 0x0b, 0x3e, 0xcf, 0xbc, 0xa7, 0x9c, 0x72, 0x96, 0xca, 0x92, 0x8d,
  0x89, 0x2f, 0x9a, 0x33, 0x88, 0x0f, 0xa3, 0x18, 0x17, 0x3e, 0x96, 0xce,
  0xc4, 0x0c, 0x45, 0xab, 0xb9, 0x6f, 0x85, 0xf0, 0xf3, 0x68, 0x46, 0xc6,
  0x6f, 0x02, 0xd4, 0xd1, 0x06, 0xa9, 0x77, 0x57, 0x4b, 0x99, 0xe4, 0x30,
  0xbb, 0x85, 0xa6, 0x0a, 0x22, 0x38, 0xec, 0x8c, 0x25, 0xbe, 0xf2, 0x06,
  0x1f, 0x5a, 0xda, 0x24, 0x68, 0x90, 0xdf, 0x3e, 0x3f, 0xb0, 0xd1, 0x5e,
  0x10, 0x59, 0x01, 0x8b, 0xbd, 0xbb, 0x55, 0xc9, 0xdd, 0x25, 0x69, 0x3c,
  0xfc, 0x36, 0xbe, 0xb3, 0xc5, 0x24, 0xe8, 0x21, 0xca, 0xbb, 0x47, 0xda,
  0xbf, 0xda, 0xef, 0xe7, 0xc5, 0x44, 0x03, 0x3d, 0x81, 0x9b, 0x46, 0xdd,
  0xe4, 0x6d, 0x3a, 0x06, 0x64, 0x26, 0x4e, 0x75, 0x4c, 0x79, 0xdb, 0xb5,
  0x9b, 0xe6, 0x94, 0xbc, 0x64, 0xe4, 0x24, 0x29, 0xb2, 0x48, 0xd8, 0x13,
  0x4e, 0x33, 0x8e, 0x25, 0xa2, 0x3c, 0x22, 0x33, 0x1d, 0xa0, 0x8d, 0xb4,
  0xc6, 0x2e, 0x75, 0x55, 0x11, 0xf9, 0x05, 0xb6, 0xce, 0x9e, 0xf3, 0x9b,
  0x33, 0xa1, 0xef, 0x86, 0xc5, 0x1a, 0xd0, 0x83, 0x40, 0x5b, 0xd4, 0x14,
  0xb2, 0x6d, 0xbc, 0x8b, 0xe1, 0xee, 0x69, 0x59, 0xc9, 0xfb, 0xd5, 0xff,
  0xf8, 0xd7, 0x97, 0x88, 0x38, 0x60, 0x2a, 0x5b, 0x2b, 0xaa, 0x30, 0xcd,
  0xe9, 0x4d, 0x97, 0xbd, 0x87, 0x5a, 0x04, 0x79, 0x48, 0x27, 0x04, 0x84,
  0x81, 0x53, 0x27, 0xe6, 0xd7, 0xa8, 0x1e, 0x27, 0x09, 0x3c, 0x9c, 0xd7,
  0x58, 0x32, 0x0c, 0x66, 0xc5, 0xeb, 0x87, 0x6d, 0xd3, 0xf9, 0xa0, 0x2e,
  0x2b, 0x84, 0x24, 0xf1, 0x6c, 0x9f, 0x9d, 0xd9, 0xd5, 0xeb, 0x8b, 0x0b,
  0xf2, 0x3d, 0xe6, 0x87, 0x16, 0xb5, 0x91, 0x99, 0x1d, 0xe5, 0xde, 0x93,
  0x0e, 0xd9, 0x8f, 0x14, 0x09, 0x8a, 0xb2, 0x52, 0x9d, 0x8d, 0xc3, 0x98,
  0x45, 0x0c, 0x0b, 0xff, 0x94, 0x57, 0xf3, 0x67, 0x50, 0x0d, 0x4c, 0xaa,
  0x91, 0x13, 0x95, 0xf8, 0xaf, 0xb8, 0xe2, 0x05, 0xce, 0x39, 0xf6, 0x2e,
  0x6b, 0xaf, 0x54, 0xb0, 0x2e, 0xd7, 0xa2, 0x3c, 0xbc, 0xcf, 0xf4, 0x4d,
  0xb3, 0x9d, 0x38, 0x4d, 0xbc, 0x87, 0x58, 0x41, 0x5e, 0x37, 0x01, 0x41,
  0x21, 0x41, 0x8c, 0x48, 0x97, 0xbb, 0x87, 0x35, 0x99, 0x2c, 0xb6, 0x9b,
  0x5f, 0xf5, 0x3e, 0x24, 0xb4, 0xaa, 0xa0, 0x85, 0x39, 0x37, 0x19, 0x21,
  0xe3, 0xd1, 0x10, 0x0e, 0x6d, 0xba, 0x30, 0xbc, 0xa3, 0xfd, 0x32, 0x46,
  0x83, 0x47, 0xcb, 0x28, 0x1d, 0x3d, 0x3a, 0xa1, 0xd1, 0xa7, 0x3a, 0x18,
  0xa1, 0xb8, 0x07, 0xe4, 0xe8, 0x94, 0xe7, 0xba, 0x87, 0x1c, 0xce, 0x95,
  0x9e, 0xe1, 0xe5, 0xb4, 0xeb, 0x49, 0x9d, 0x90, 0x98, 0xae, 0x5b, 0x8a,
  0xec, 0x0d, 0x90, 0xed, 0xeb, 0x66, 0x64, 0x3d, 0xdc, 0xaa, 0x24, 0xce,
  0xe0, 0x40, 0x23, 0xf6, 0x19, 0x13, 0xc8, 0xb6, 0x49, 0xd2, 0x9f, 0x02,
  0xae, 0x0b, 0x58, 0x1b, 0x1c, 0xbd, 0xab, 0xff, 0x23, 0x50, 0x15, 0xca,
  0x01, 0x5c, 0x18, 0xc7, 0x40, 0xbe, 0x69, 0xb3, 0xf6, 0x8b, 0xf5, 0x70,
  0x1e, 0x56, 0x8b, 0x82, 0x61, 0xb1, 0xdf, 0xc9, 0xef, 0x99, 0xb2, 0x43,
  0xdf, 0xc6, 0x1a, 0x09, 0x43, 0xbe, 0xb5, 0x15, 0xbb, 0x01, 0x12, 0x5e,
  0x8d, 0xf1, 0xa3, 0xd9, 0x82, 0x45, 0xeb, 0x68, 0x65, 0x45, 0x11, 0xab,
  0x42, 0x8d, 0xaa, 0xd1, 0x2f, 0x92, 0x9c, 0x51, 0x5e, 0x03, 0xbd, 0xa8,
  0xd9, 0x3c, 0x95, 0x5f, 0x49, 0xd3, 0xc6, 0xc3, 0x99, 0xf3, 0x99, 0xf9,
  0x23, 0x9a, 0x86, 0x2a, 0x84, 0xc4, 0xd6, 0x62, 0xfb, 0xa4, 0xe3, 0xc7,
  0xc0, 0xf9, 0x19, 0x8a, 0x30, 0x40, 0xd2, 0x64, 0x4f, 0x2a, 0x2d, 0xab,
  0x59, 0xa7, 0x32, 0xd9, 0x6c, 0x4d, 0x4c, 0xda, 0xdb, 0x2c, 0x32, 0x64,
  0xe6, 0x01, 0x39, 0xe3, 0x89, 0xe3, 0x32, 0x1b, 0xb3, 0xe5, 0x34, 0x2f,
  0x81, 0xf9, 0xb0, 0x08, 0x68, 0x32, 0x4f, 0x12, 0x8e, 0x8a, 0x21, 0x2e,
  0xcd, 0x85, 0x04, 0xae, 0x34, 0xf4, 0x30, 0xb9, 0xec, 0x29, 0xb9, 0xed,
  0x32, 0xe4, 0x20, 0xf6, 0x8a, 0x27, 0x56, 0x0c, 0x36, 0xab, 0xa7, 0x63,
  0xe9, 0x43, 0xe8, 0xc1, 0xb6, 0x2f, 0x60, 0xc0, 0x57, 0x3a, 0x21, 0xfb,
  0xff, 0xc1, 0xa3, 0xb3, 0xc7, 0x06, 0x07, 0x81, 0xe1, 0x47, 0x38, 0x59,
  0xae, 0xed, 0xe1, 0x6c, 0x2c, 0x69, 0x3b, 0x5e, 0xaa, 0x38, 0xda, 0xd1,
  0x93, 0xd3, 0x05, 0xae, 0x32, 0x9c, 0xa5, 0xd2, 0xb4, 0x01, 0xd1, 0xf5,
  0x53, 0x39, 0xd5, 0x06, 0x27, 0xc8, 0x91, 0xc3, 0xdf, 0x14, 0x3e, 0x03,
  0x27, 0x9a, 0xa1, 0xac, 0x5d, 0x58, 0x96, 0x8c, 0xab, 0xba, 0xcf, 0xd1,
  0x67, 0xe4, 0x5c, 0x6b, 0x86, 0x4f, 0x49, 0x04, 0xb6, 0xbb, 0xfa, 0x1d,
  0x41, 0x28, 0x30, 0x0d, 0xda, 0xe1, 0x68, 0x0b, 0x62, 0x50, 0x89, 0x35,
  0x4e, 0xea, 0xe9, 0x08, 0x48, 0x0f, 0x5e, 0x62, 0xb7, 0xce, 0xf2, 0xd3,
  0xf6, 0xa7, 0xcd, 0xe9, 0x45, 0xc6, 0xe9, 0x90, 0xed, 0xaf, 0x9c, 0xc5,
  0x4b, 0x88, 0x97, 0xb7, 0x98, 0x93, 0x67, 0x2a, 0x9e, 0x67, 0x48, 0x39,
  0xef, 0x4b, 0x4f, 0xda, 0x82, 0xce, 0xaf, 0x28, 0x5b, 0x34, 0x57, 0x9f,
  0x37, 0x5b, 0x9f, 0x9e, 0x04, 0x5c, 0x90, 0x8c, 0xa8, 0xd4, 0xf4, 0xce,
  0x62, 0x39, 0x5e, 0xa4, 0xdd, 0x9a, 0x08, 0x66, 0x86, 0xb2, 0xdd, 0x46,
  0xa7, 0xc1, 0xf6, 0xd5, 0x38, 0x12, 0x44, 0x66, 0x1a, 0xd3, 0x4a, 0xf2,
  0x76, 0x35, 0x43, 0x10, 0x56, 0xe6, 0xc4, 0xd6, 0x87, 0xba, 0xd2, 0xe7,
  0xf6, 0xa5, 0x8d, 0x29, 0xfd, 0x8e, 0xc6, 0xd2, 0x3e, 0xc6, 0x36, 0x5a,
  0xb5, 0x3f, 0xb1, 0x20, 0x29, 0x0d, 0xf3, 0x23, 0x32, 0x15, 0x8a, 0x58,
  0x2f, 0x11, 0x4a, 0x4a, 0x9a, 0xd1, 0x88, 0x8f, 0x18, 0xe3, 0xe4, 0x2e,
  0x17, 0x24, 0xf0, 0xf8, 0x34, 0x1b, 0x33, 0xfa, 0x12, 0x17, 0x49, 0xe9,
  0xf3, 0xd5, 0xda, 0xd8, 0x03, 0x19, 0x1b, 0xe1, 0x9b, 0x1a, 0x0e, 0xf6,
  0xd9, 0xb7, 0xf0, 0x02, 0xde, 0xe2, 0xee, 0xde, 0xd0, 0x2b, 0xec, 0xdd,
  0xb3, 0x07, 0x4d, 0xf5, 0x43, 0xb8, 0xcb, 0x3c, 0xea, 0x37, 0x1e, 0x1d,
  0x1d, 0xf6, 0xfd, 0xfe, 0x3c, 0xe3, 0xae, 0x1b, 0xf7, 0xdd, 0x27, 0x1e,
  0x21, 0x32, 0xf8, 0x1a, 0xf3, 0xf2, 0x20, 0xfd, 0x0e, 0x38, 0xa2, 0x2a,
  0xc2, 0x02, 0x2c, 0x9b, 0xc9, 0x15, 0x0a, 0xfc, 0xdc, 0x28, 0x13, 0xf9,
  0x21, 0xf5, 0x2f, 0x04, 0xd1, 0x3f, 0x05, 0xe8, 0xef, 0xd7, 0x0d, 0xe8,
  0xae, 0x30, 0xfe, 0xf2, 0x0e, 0xd8, 0x48, 0x07, 0xcf, 0xe5, 0x02, 0xe9,
  0x8c, 0xe3, 0xf6, 0x02, 0xae, 0x28, 0xc7, 0xef, 0xaf, 0x02, 0x05, 0x04,
  0x29, 0x81, 0xbd, 0x20, 0xf4, 0x1c, 0xc6, 0x04, 0xf1, 0x19, 0xd4, 0x45,
  0x0b, 0x43, 0x10, 0xe8, 0xf0, 0x15, 0xfb, 0xaf, 0x17, 0xf8, 0xdb, 0xfd,
  0x15, 0x0f, 0xe6, 0xc8, 0xe3, 0x12, 0x27, 0x28, 0x01, 0x14, 0xe9, 0xe1,
  0xf7, 0xd4, 0x03, 0xe0, 0x2e, 0x14, 0xb0, 0x21, 0x13, 0x21, 0x21, 0x03,
  0xd8, 0x0e, 0xef, 0x13, 0x17, 0xf7, 0x17, 0xdc, 0x19, 0xe9, 0x85, 0x28,
  0x1b, 0xff, 0x06, 0x1a, 0x2f, 0x07, 0x14, 0xe5, 0x03, 0x30, 0xf8, 0x2c,
  0xa6, 0x1a, 0xe0, 0x23, 0xc7, 0x0b, 0x03, 0x01, 0x06, 0x01, 0x1a, 0x1c,
  0x41, 0x13, 0xb6, 0xda, 0xe8, 0x26, 0xfd, 0x38, 0x0e, 0x24, 0x45, 0x1e,
  0x09, 0x59, 0x39, 0xf3, 0xee, 0xfd, 0xb1, 0xe6, 0x26, 0xbe, 0x01, 0x64,
  0x33, 0xd6, 0xe9, 0xfd, 0xf9, 0xf6, 0xde, 0x25, 0x18, 0xe4, 0xed, 0xe3,
  0x2d, 0xd5, 0x32, 0x10, 0xf2, 0xfd, 0xfd, 0xe7, 0xd7, 0x4e, 0xf5, 0xfc,
  0x2e, 0xda, 0xcb, 0xe7, 0x60, 0xd7, 0xfe, 0xe6, 0xa0, 0x17, 0xfd, 0xa6,
  0x1a, 0xb6, 0x01, 0x37, 0xcb, 0x14, 0xfe, 0xf7, 0x2d, 0x0e, 0x1f, 0xc0,
  0xec, 0x00, 0x38, 0x0d, 0x06, 0x19, 0x10, 0x2f, 0x0f, 0xe9, 0xf3, 0xdd,
  0xd5, 0xd1, 0xb9, 0xe2, 0xf9, 0x0c, 0x1e, 0xe4, 0xfe, 0x24, 0xe6, 0xfd,
  0xf1, 0xd2, 0xb5, 0x13, 0x11, 0xb4, 0xcb, 0x2b, 0xf6, 0xe5, 0xec, 0x07,
  0xc9, 0x03, 0xfc, 0xc4, 0xe2, 0x37, 0x27, 0xed, 0x11, 0x33, 0x41, 0x17,
  0xdd, 0xee, 0xe8, 0xe4, 0xf5, 0xeb, 0x24, 0xfb, 0xef, 0xe8, 0x72, 0x05,
  0xdf, 0x7d, 0x3b, 0xdf, 0xec, 0xd1, 0x1c, 0x0c, 0xdb, 0x07, 0x3d, 0x0c,
  0x17, 0xd3, 0x0a, 0x44, 0xf7, 0x46, 0xfb, 0x43, 0x07, 0x01, 0x1b, 0x47,
  0xd6, 0x1f, 0x29, 0x08, 0xfc, 0xe9, 0x0e, 0xe9, 0x02, 0x3c, 0xd5, 0x36,
  0x08, 0x0a, 0x45, 0x1d, 0xc6, 0xfe, 0x25, 0xf3, 0xcf, 0x29, 0xd7, 0x3c,
  0xe2, 0xfa, 0xbf, 0x60, 0xd3, 0x15, 0x01, 0x20, 0xfd, 0xf1, 0xef, 0x1c,
  0x5d, 0xed, 0x24, 0x0f, 0x00, 0x0a, 0x2d, 0xf5, 0xf0, 0x0e, 0xf2, 0x05,
  0x07, 0xec, 0xd8, 0x14, 0xfb, 0x0d, 0xfa, 0x0a, 0xdb, 0x01, 0xd5, 0xee,
  0xe4, 0x1a, 0x00, 0x03, 0x0c, 0xf1, 0x03, 0xfc, 0x53, 0x17, 0xd5, 0x3e,
  0x27, 0xf9, 0xdc, 0x15, 0x5c, 0x31, 0xd0, 0x30, 0x2b, 0x17, 0x28, 0xde,
  0x1b, 0x1a, 0x06, 0x17, 0x2b, 0x1b, 0xf2, 0x19, 0x4b, 0x18, 0xc9, 0xed,
  0xed, 0x2f, 0x21, 0xd3, 0xcb, 0xfe, 0xa8, 0xf4, 0xc8, 0xa7, 0xd1, 0xf2,
  0xe7, 0x07, 0xb4, 0xae, 0xb9, 0xdf, 0xef, 0x03, 0xe8, 0xd6, 0xf9, 0xf6,
  0x0a, 0xf0, 0xfa, 0xff, 0x1d, 0x2e, 0x12, 0xfb, 0x30, 0x00, 0x22, 0xfb,
  0xf6, 0x25, 0x1a, 0x0a, 0xdf, 0x05, 0xd7, 0xf4, 0xc0, 0xff, 0x13, 0x1c,
  0x15, 0xc1, 0xd2, 0xd5, 0xf6, 0xee, 0xe4, 0x0b, 0x20, 0xee, 0xe8, 0xf9,
  0xf3, 0x07, 0xf4, 0x30, 0x38, 0x3e, 0xd2, 0xe3, 0x19, 0xf4, 0xf7, 0xe8,
  0x0e, 0xe4, 0x07, 0xef, 0xff, 0xfc, 0xbd, 0x23, 0xc5, 0x09, 0x05, 0xaa,
  0xcd, 0xb4, 0xfc, 0xd0, 0xfc, 0xa1, 0xef, 0x3e, 0xc2, 0xd2, 0xfc, 0xc5,
  0x81, 0xea, 0xb5, 0xc8, 0x01, 0x0f, 0x30, 0x0b, 0xf6, 0x22, 0xf7, 0x10,
  0xfc, 0xe4, 0xe4, 0xec, 0xf0, 0xf0, 0xc7, 0xe5, 0x09, 0xd5, 0xf6, 0xfc,
  0x23, 0xc0, 0xa3, 0x27, 0xd7, 0x21, 0x22, 0xde, 0x0a, 0xe3, 0x27, 0xef,
  0xed, 0x2c, 0xed, 0x29, 0x0a, 0xa6, 0xbe, 0xe5, 0x04, 0xf9, 0x19, 0x05,
  0x3e, 0x2d, 0x30, 0x55, 0x33, 0x18, 0xf6, 0xa9, 0xfd, 0xe1, 0x2d, 0xd1,
  0xf2, 0x11, 0xb2, 0xf5, 0xe9, 0x3b, 0xf0, 0xf0, 0xe6, 0xd6, 0x03, 0x11,
  0xb7, 0x06, 0xd7, 0xd7, 0x05, 0xda, 0xd1, 0xcb, 0xc6, 0xfc, 0xf5, 0xd8,
  0xd1, 0xee, 0xf3, 0xe5, 0xf3, 0xd5, 0x07, 0xf8, 0xee, 0x0b, 0x10, 0x17,
  0xda, 0xd5, 0x35, 0x15, 0x5a, 0xcb, 0xb6, 0xe4, 0x0b, 0xf9, 0xfc, 0xdf,
  0x1e, 0xe4, 0x14, 0xdf, 0x17, 0x22, 0xd4, 0x16, 0xfa, 0x28, 0xeb, 0xe6,
  0xe3, 0xa3, 0xe8, 0x0c, 0x06, 0xf0, 0xc4, 0x20, 0x24, 0x0f, 0x31, 0x05,
  0xf3, 0xee, 0xea, 0xdd, 0x15, 0xde, 0xf9, 0x17, 0xdc, 0xf6, 0xce, 0xe3,
  0xca, 0x13, 0xfb, 0x15, 0x2f, 0xd7, 0x26, 0xe4, 0x07, 0x12, 0xf4, 0xe4,
  0x00, 0xff, 0x8d, 0x0b, 0xc7, 0xfd, 0xd1, 0xbe, 0xff, 0xf0, 0x0d, 0xfc,
  0xfd, 0xfa, 0x0b, 0xed, 0xda, 0xde, 0xe5, 0x1b, 0xe0, 0xdc, 0xee, 0xe9,
  0x0b, 0x1e, 0xff, 0xdc, 0x0c, 0x3f, 0x38, 0x09, 0xd9, 0xd0, 0xd4, 0xf9,
  0x10, 0xda, 0xd3, 0xf9, 0x00, 0x09, 0xea, 0x15, 0xf3, 0xfe, 0xe3, 0xef,
  0xff, 0x05, 0xfe, 0xe1, 0x2e, 0x10, 0xed, 0x36, 0x2d, 0x39, 0x3f, 0x0e,
  0x0c, 0x34, 0x10, 0x2b, 0x17, 0xef, 0x1e, 0x2d, 0xeb, 0xee, 0xfe, 0xfc,
  0x27, 0x14, 0x11, 0x32, 0x3f, 0x06, 0x28, 0xef, 0x2d, 0x21, 0x10, 0x41,
  0x18, 0x3c, 0xf4, 0xfd, 0xfa, 0xf7, 0xff, 0x27, 0xe4, 0xf3, 0xe7, 0x2f,
  0xf9, 0xfb, 0x06, 0xe9, 0xf2, 0x01, 0x2c, 0xfb, 0xc9, 0x1d, 0x37, 0x20,
  0xbc, 0x02, 0x05, 0x1e, 0xbb, 0x0f, 0x26, 0x13, 0x02, 0xe3, 0xf5, 0x1b,
  0x05, 0x28, 0x13, 0xf9, 0xc1, 0x12, 0x06, 0xd0, 0x10, 0x0e, 0x29, 0x0e,
  0x13, 0xe3, 0x13, 0x00, 0x09, 0x1a, 0x1d, 0xeb, 0xdf, 0x21, 0x06, 0xd6,
  0xeb, 0x1c, 0x4d, 0x11, 0x42, 0xec, 0x21, 0x1b, 0x0c, 0x0d, 0x05, 0xcd,
  0x01, 0x09, 0x1e, 0xb8, 0xea, 0x0c, 0x7f, 0xfb, 0x37, 0x10, 0xe7, 0x45,
  0xc3, 0x02, 0x1a, 0x10, 0xed, 0x18, 0xd7, 0x24, 0x1c, 0x13, 0x1a, 0x1f,
  0x1b, 0x30, 0xfb, 0xe5, 0xfe, 0xec, 0x1b, 0xf0, 0xcb, 0x1c, 0x01, 0x0a,
  0xff, 0xed, 0xf2, 0xf1, 0xfb, 0xde, 0xf5, 0xe6, 0xfd, 0xec, 0x36, 0xfe,
  0xc3, 0x1d, 0x13, 0xd0, 0xd1, 0xfb, 0x1b, 0x23, 0x03, 0xcd, 0x1b, 0x17,
  0xe7, 0xf2, 0xfc, 0xef, 0xd1, 0x18, 0x2f, 0xb7, 0x03, 0x21, 0x43, 0xea,
  0xfa, 0xe8, 0xf5, 0xed, 0xd5, 0xe4, 0xef, 0xfa, 0xcd, 0xeb, 0xea, 0xbd,
  0x05, 0xe6, 0x4a, 0xd5, 0x44, 0xdc, 0x1d, 0x0f, 0x40, 0x0f, 0xf2, 0x0c,
  0x42, 0xf3, 0xfe, 0xe6, 0xf2, 0xed, 0x29, 0x02, 0x23, 0x33, 0x0c, 0x3a,
  0x0e, 0xef, 0x0c, 0xf2, 0xfa, 0xeb, 0x07, 0xe6, 0xd3, 0xfd, 0xcb, 0x02,
  0x18, 0xf1, 0xeb, 0x20, 0x06, 0x2d, 0x27, 0x1c, 0xfe, 0x3c, 0x51, 0x28,
  0xdd, 0x2b, 0x28, 0x0d, 0x25, 0xc6, 0xeb, 0x20, 0x2e, 0x24, 0x38, 0x03,
  0x0f, 0x72, 0x4c, 0xc4, 0x2f, 0x0d, 0x59, 0x35, 0x10, 0xce, 0x23, 0x21,
  0xf4, 0xdc, 0x1d, 0xff, 0x16, 0x09, 0x16, 0xb8, 0x0e, 0x09, 0x62, 0xe7,
  0x01, 0x06, 0xf2, 0x0f, 0x40, 0xf3, 0x18, 0xf7, 0x23, 0x33, 0x5a, 0xe9,
  0x9e, 0x03, 0x26, 0x0c, 0x1b, 0x1c, 0xe0, 0xe7, 0x13, 0xda, 0x26, 0x1e,
  0x02, 0x0f, 0x25, 0xdd, 0xb1, 0xf9, 0xdb, 0xd7, 0x21, 0xb9, 0xf1, 0xf0,
  0x09, 0xf1, 0xfe, 0xda, 0xd6, 0xde, 0x2f, 0xfa, 0xbf, 0x24, 0x1e, 0x29,
  0xff, 0xab, 0x2c, 0x41, 0x1d, 0x0b, 0xfb, 0xe4, 0x16, 0x01, 0x43, 0xfd,
  0xf9, 0xe2, 0xeb, 0xcc, 0xe4, 0xed, 0x15, 0x37, 0x09, 0x08, 0xfb, 0xde,
  0x42, 0xe1, 0x0e, 0xa6, 0x0e, 0x11, 0xb0, 0x04, 0xc9, 0x1b, 0xf5, 0xb2,
  0xd7, 0xed, 0x2c, 0x05, 0x24, 0x07, 0x38, 0x18, 0xfc, 0xe7, 0x24, 0x26,
  0x12, 0xbd, 0x03, 0x10, 0x03, 0x16, 0x15, 0x36, 0xe4, 0x58, 0x50, 0xf9,
  0xe6, 0xdb, 0x3a, 0xdf, 0x00, 0xa7, 0xef, 0x18, 0xee, 0x0c, 0x09, 0x13,
  0xe1, 0x0e, 0x33, 0x12, 0xe7, 0x28, 0x0a, 0xff, 0xff, 0xdf, 0xe0, 0x07,
  0x08, 0x04, 0x09, 0x28, 0x27, 0x29, 0x1b, 0x1b, 0x0c, 0xef, 0x23, 0x36,
  0x1d, 0x0d, 0xdb, 0x14, 0xf7, 0x3b, 0x13, 0x35, 0x47, 0x13, 0xfb, 0x55,
  0x09, 0xfe, 0xda, 0x19, 0x00, 0x2f, 0xe1, 0xdc, 0xaf, 0xad, 0x6a, 0xec,
  0x3c, 0x96, 0x2e, 0xf8, 0x16, 0x3b, 0xe5, 0x35, 0x34, 0x61, 0xfe, 0xcf,
  0xdf, 0x65, 0xe7, 0xd3, 0x62, 0x3e, 0xd3, 0x21, 0xcb, 0x8d, 0xed, 0x2e,
  0x60, 0xbb, 0x0b, 0xd7, 0x8c, 0xbe, 0x64, 0x85, 0x59, 0x4c, 0xe2, 0xf4,
  0xcc, 0x4f, 0x8e, 0xb0, 0x45, 0xdd, 0x9b, 0x64, 0xbe, 0xf4, 0xbf, 0x36,
  0xd3, 0xcd, 0xde, 0x41, 0xdd, 0x52, 0xa6, 0x9a, 0xc0, 0xb1, 0xc7, 0x37,
  0x1d, 0xab, 0xee, 0xba, 0x32, 0x2a, 0xf6, 0x14, 0xef, 0x5e, 0x68, 0x96,
  0xd9, 0x02, 0x06, 0x05, 0xea, 0xe7, 0xfa, 0xed, 0x24, 0xf6, 0x3f, 0xe2,
  0xee, 0x26, 0x43, 0xb6, 0x9f, 0xd0, 0x21, 0x02, 0x05, 0x0a, 0x27, 0x1b,
  0x38, 0x28, 0x33, 0xcf, 0xc5, 0x9d, 0xe1, 0xa6, 0xad, 0x64, 0x68, 0xf4,
  0x12, 0x52, 0xa8, 0xa2, 0x42, 0xfa, 0xb2, 0x90, 0xba, 0x8b, 0x42, 0x14,
  0x5b, 0x13, 0x27, 0x65, 0x06, 0xe0, 0xd4, 0x23, 0xe9, 0x5e, 0x4c, 0xba,
  0x9c, 0x10, 0x9c, 0xa7, 0xc5, 0xad, 0x4d, 0xa0, 0xa1, 0x3f, 0xc7, 0x55,
  0x5a, 0xd0, 0xab, 0x22, 0xe9, 0x27, 0xe3, 0x9f, 0x46, 0x41, 0x0c, 0x88,
  0x64, 0x35, 0xb0, 0x54, 0x9c, 0x9a, 0xac, 0xb1, 0xe0, 0x1a, 0x43, 0x57,
  0x4c, 0x37, 0x42, 0x51, 0x2c, 0x37, 0x15, 0xed, 0xfa, 0xda, 0x94, 0xb2,
  0x65, 0x37, 0x87, 0xd1, 0xb1, 0x1f, 0x0e, 0x3c, 0x95, 0x81, 0xb3, 0x4a,
  0xf6, 0x54, 0x86, 0xf7, 0x63, 0x33, 0x45, 0x58, 0x91, 0x42, 0x59, 0xbe,
  0xd5, 0x23, 0xaa, 0xc6, 0x5e, 0x59, 0x9f, 0xad, 0xe1, 0x08, 0xc8, 0x35,
  0xa7, 0x22, 0x97, 0xc6, 0x1e, 0xae, 0x5c, 0x29, 0x54, 0xe5, 0x03, 0x41,
  0x29, 0x38, 0x8e, 0x9e, 0x27, 0xd1, 0xbc, 0xb0, 0x01, 0xb8, 0xfe, 0x53,
  0x3e, 0x05, 0xcf, 0x32, 0xa6, 0xab, 0x83, 0xed, 0x42, 0x32, 0x57, 0x47,
  0x47, 0xb8, 0xd4, 0xe3, 0x1c, 0x3c, 0x2c, 0x2b, 0x8e, 0xd5, 0xd1, 0xaf,
  0x2f, 0x9d, 0x2a, 0xd2, 0x8e, 0x0f, 0x64, 0x95, 0xfc, 0x9c, 0x44, 0xeb,
  0x2e, 0x2a, 0x9a, 0x07, 0xe9, 0xb5, 0x31, 0x62, 0x4f, 0xd3, 0xaf, 0x51,
  0x4f, 0x9a, 0xe3, 0xc1, 0x40, 0xfd, 0xaf, 0x95, 0x21, 0xec, 0xc3, 0x63,
  0x2f, 0x36, 0x03, 0xaf, 0xd3, 0x31, 0x10, 0x3e, 0x9a, 0xe7, 0x3b, 0x97,
  0xb6, 0x92, 0xe0, 0x38, 0x90, 0xa1, 0xda, 0x8b, 0xfd, 0x84, 0x66, 0x6a,
  0xf3, 0xe5, 0x57, 0x4c, 0x3e, 0x36, 0x8c, 0xa1, 0x0f, 0x9d, 0x66, 0x41,
  0x5a, 0x9b, 0x97, 0xd6, 0x67, 0x1c, 0x0c, 0xe4, 0xde, 0xf7, 0x1e, 0x9b,
  0x4e, 0x39, 0x8c, 0xf8, 0xbd, 0xb8, 0xc8, 0xc5, 0xce, 0x9f, 0x08, 0x31,
  0x40, 0xbb, 0xaa, 0xd0, 0x40, 0x20, 0xea, 0x67, 0xd1, 0xdd, 0xf1, 0xef,
  0x3d, 0x8b, 0x1f, 0xce, 0xa0, 0xd2, 0xc3, 0x2f, 0x96, 0x49, 0x8a, 0x18,
  0x3e, 0xe4, 0x67, 0x1b, 0xd7, 0x01, 0xa5, 0xaf, 0x37, 0xf0, 0xb7, 0xed,
  0x52, 0xe2, 0x55, 0x03, 0x45, 0x00, 0xfc, 0x52, 0x5e, 0xa7, 0x9d, 0x23,
  0x5d, 0x4f, 0x1e, 0x1b, 0x4d, 0xdf, 0x35, 0x08, 0xab, 0x94, 0x01, 0xf7,
  0xf5, 0xd2, 0x45, 0xf3, 0xb6, 0x1d, 0x69, 0x98, 0xe9, 0xd9, 0x90, 0x35,
  0x00, 0xf0, 0xe3, 0x56, 0x64, 0x09, 0x57, 0xc6, 0x45, 0xaf, 0x08, 0x9f,
  0x2e, 0x10, 0x0b, 0x24, 0x34, 0x87, 0x8a, 0x34, 0x9b, 0x38, 0x6b, 0xda,
  0xcf, 0xeb, 0x11, 0x24, 0xdc, 0x24, 0xef, 0x16, 0x51, 0xc3, 0x9e, 0x14,
  0xa5, 0xcf, 0xad, 0x44, 0x2d, 0x0a, 0x58, 0xc5, 0x5f, 0x9e, 0x01, 0x59,
  0x06, 0xbe, 0x1a, 0x07, 0x14, 0x97, 0x36, 0xa8, 0x42, 0x11, 0x21, 0xb9,
  0xc1, 0x87, 0x1d, 0xb6, 0x41, 0x88, 0xb8, 0xa8, 0x6a, 0x38, 0x3d, 0x0e,
  0xd1, 0x03, 0xbc, 0xc4, 0xb2, 0xba, 0xd9, 0xe8, 0xc4, 0x8d, 0x18, 0xaf,
  0x58, 0x82, 0xe2, 0x3b, 0x28, 0xbf, 0x9d, 0x3b, 0xdf, 0x4f, 0xb2, 0xe2,
  0x45, 0xab, 0xcf, 0xb6, 0x88, 0x03, 0x44, 0xd5, 0xcf, 0xae, 0x9d, 0xd9,
  0xab, 0x8f, 0xd3, 0x1b, 0xfd, 0xbd, 0x97, 0xf9, 0x32, 0x99, 0x54, 0x63,
  0x36, 0xd3, 0x5d, 0x54, 0x5d, 0x4f, 0xb7, 0xe0, 0x65, 0xea, 0x41, 0x0f,
  0xa8, 0x3d, 0xc6, 0xee, 0x89, 0x39, 0x0f, 0x3c, 0x92, 0x35, 0x9e, 0x01,
  0xd0, 0x91, 0x50, 0x02, 0xb1, 0x1d, 0x87, 0x29, 0x2a, 0x0f, 0x9d, 0x53,
  0xe0, 0x81, 0x39, 0x02, 0x32, 0x84, 0xf5, 0xb8, 0xdb, 0xbd, 0x11, 0xae,
  0x91, 0x09, 0x2c, 0xfd, 0x32, 0x8d, 0xa3, 0xdf, 0xf2, 0x18, 0x24, 0x6a,
  0x44, 0xa7, 0xcf, 0xab, 0x11, 0x4a, 0x23, 0x8b, 0x0a, 0xfb, 0xbd, 0xfc,
  0xd3, 0xe9, 0x0e, 0x67, 0x0d, 0x98, 0xd1, 0xb7, 0xbb, 0x47, 0xc3, 0xec,
  0xa5, 0xab, 0x3f, 0x5a, 0x29, 0x24, 0xa8, 0xa6, 0xcc, 0xc2, 0x1c, 0x2e,
  0x26, 0xb6, 0x4f, 0x90, 0xc9, 0x40, 0x11, 0xd7, 0x03, 0xe7, 0xc8, 0x3a,
  0x35, 0x97, 0xb3, 0xa5, 0x1a, 0x6e, 0xea, 0xe0, 0xcf, 0xd7, 0xf6, 0xb5,
  0x3c, 0x9a, 0x29, 0x65, 0x4b, 0xb2, 0xaa, 0x23, 0xc6, 0x35, 0x3b, 0x14,
  0x9e, 0xbe, 0x0a, 0x44, 0x98, 0x66, 0x43, 0x0f, 0xb9, 0xb1, 0x11, 0xea,
  0x93, 0x1e, 0xb2, 0x46, 0xec, 0xcc, 0xa0, 0xf8, 0x96, 0x2c, 0x5b, 0x1d,
  0xac, 0xe9, 0xcd, 0x2f, 0xb0, 0x0f, 0xc8, 0xe7, 0xfa, 0x3a, 0xc7, 0x53,
  0x2e, 0xf0, 0x52, 0xfe, 0xb3, 0xe8, 0xf5, 0xcc, 0x33, 0x54, 0x96, 0x11,
  0x4a, 0x94, 0xfb, 0x3e, 0x1e, 0xb9, 0x32, 0xd0, 0x4d, 0x16, 0xe4, 0xc6,
  0x30, 0x3e, 0xc2, 0xdf, 0xd8, 0x82, 0x0d, 0x0a, 0x32, 0x03, 0x05, 0x92,
  0x16, 0xc5, 0x0a, 0x21, 0xf3, 0xd1, 0x15, 0xf8, 0x9d, 0x03, 0xb2, 0x4d,
  0x9b, 0xc5, 0x02, 0x2b, 0x18, 0xe7, 0xec, 0xa9, 0xb7, 0xb8, 0xbb, 0x2e,
  0x8c, 0x14, 0xe7, 0xec, 0xfa, 0xd5, 0xd7, 0x35, 0xda, 0xf6, 0x40, 0x06,
  0xcf, 0x09, 0xea, 0xfa, 0x06, 0x3c, 0x03, 0x01, 0x23, 0xe1, 0x1b, 0x02,
  0x33, 0x04, 0xf4, 0xf9, 0xe4, 0x4a, 0x3d, 0x25, 0x04, 0xdf, 0x21, 0x1b,
  0x17, 0x03, 0xd7, 0x01, 0x3c, 0x13, 0x76, 0x00, 0xf6, 0x3a, 0x22, 0x22,
  0xe2, 0x10, 0xbe, 0x32, 0xf1, 0x13, 0xcd, 0x37, 0x77, 0x2c, 0x26, 0x04,
  0xe5, 0x52, 0x52, 0x27, 0x58, 0xfa, 0xc8, 0xf5, 0x29, 0xdc, 0xe1, 0x5a,
  0x3f, 0x3e, 0xcf, 0x0c, 0x2e, 0x36, 0x2b, 0x14, 0x19, 0x43, 0xf7, 0x03,
  0xf5, 0xd3, 0xcc, 0x29, 0xfd, 0x08, 0xa0, 0x21, 0x4f, 0x0f, 0x14, 0x35,
  0x2c, 0xed, 0xf4, 0x0c, 0x1e, 0xee, 0x34, 0x23, 0x42, 0x22, 0x7a, 0x3c,
  0xf9, 0x1c, 0x29, 0x33, 0xf9, 0xe5, 0xe1, 0xff, 0xd7, 0xda, 0x0f, 0x0e,
  0xff, 0x1e, 0x1e, 0xf3, 0x01, 0xfd, 0xed, 0x28, 0x32, 0xe8, 0xe2, 0xf7,
  0xe6, 0x1d, 0xe7, 0x0a, 0x00, 0xf7, 0xd2, 0x0f, 0x0b, 0x3d, 0xd5, 0x07,
  0x26, 0x31, 0xe2, 0x1c, 0x0e, 0xc3, 0xd4, 0x31, 0x33, 0xf1, 0xa9, 0x2f,
  0xb6, 0x34, 0xf3, 0xb3, 0x38, 0x1d, 0xf2, 0x18, 0x0c, 0xe1, 0xf5, 0x73,
  0xf1, 0xeb, 0xb7, 0xe5, 0x9c, 0x3c, 0xcb, 0xf8, 0xda, 0x35, 0x56, 0x1c,
  0xf0, 0x49, 0x1f, 0x1a, 0x24, 0xf3, 0x5d, 0x06, 0x21, 0xd5, 0xf3, 0xd0,
  0xc9, 0x02, 0x15, 0xea, 0x05, 0x1c, 0xce, 0x05, 0xfe, 0x08, 0x0f, 0xeb,
  0x22, 0x2c, 0xfb, 0xde, 0x1b, 0x17, 0x04, 0x40, 0xdf, 0x0e, 0x45, 0x25,
  0xd3, 0xe7, 0xd4, 0xf9, 0xf9, 0xec, 0x17, 0xfb, 0xf1, 0x23, 0x0c, 0x30,
  0x0b, 0xe8, 0xf2, 0x56, 0x1c, 0x03, 0xea, 0x25, 0xc9, 0x25, 0x08, 0xab,
  0x33, 0x0f, 0x16, 0x3a, 0xbc, 0xca, 0xed, 0x7f, 0x15, 0x2e, 0xe9, 0x4f,
  0x22, 0xef, 0xdf, 0xdc, 0x0d, 0xf7, 0x2e, 0x33, 0x14, 0xe6, 0x98, 0x3f,
  0x2b, 0x21, 0xd0, 0x6d, 0xfc, 0x01, 0x09, 0xfc, 0x1e, 0x1b, 0x33, 0x4a,
  0x1c, 0xf9, 0xce, 0x47, 0x34, 0x50, 0xb1, 0x5a, 0xfb, 0x2c, 0xeb, 0xb8,
  0x35, 0x38, 0xf5, 0x2d, 0x0a, 0x11, 0x22, 0xf2, 0x1c, 0x3b, 0xe3, 0x4a,
  0x07, 0x05, 0x0f, 0x0e, 0x28, 0xfb, 0x0e, 0x1b, 0xee, 0x4d, 0x25, 0xf0,
  0x2d, 0x01, 0xdb, 0xd7, 0x0d, 0xeb, 0x2f, 0xf4, 0xfe, 0x28, 0x60, 0xff,
  0xc2, 0x27, 0x4b, 0x15, 0xe9, 0xe7, 0x0a, 0xfd, 0x30, 0xd9, 0x10, 0x47,
  0x3a, 0x01, 0xd6, 0x2d, 0x39, 0xdb, 0xa1, 0xfe, 0xeb, 0x2c, 0xd5, 0x0b,
  0xf6, 0x18, 0x25, 0x43, 0x19, 0x4d, 0xdc, 0x34, 0x3d, 0xb3, 0xf3, 0xe0,
  0xd8, 0x3f, 0x9c, 0x2f, 0x4c, 0x23, 0xe3, 0x45, 0x2c, 0x3f, 0xf5, 0xe5,
  0xd6, 0x0a, 0x56, 0xbb, 0xbc, 0x49, 0x10, 0xcd, 0x12, 0xf0, 0xfc, 0x4b,
  0x29, 0x19, 0x27, 0x21, 0xdc, 0x34, 0x32, 0xb7, 0xb4, 0x1a, 0x34, 0xf3,
  0x07, 0x00, 0xfc, 0x23, 0xe6, 0xee, 0x5b, 0xde, 0xf8, 0x46, 0x33, 0xb6,
  0x02, 0x3e, 0x35, 0x33, 0x42, 0x21, 0x34, 0x23, 0xb7, 0x24, 0xe9, 0xec,
  0xc1, 0x1a, 0x14, 0x4f, 0xd0, 0xfb, 0x02, 0xf8, 0x00, 0xed, 0xee, 0xc9,
  0x0a, 0x0b, 0x1d, 0x26, 0xe2, 0x1b, 0x06, 0x1e, 0x00, 0x46, 0xda, 0x3b,
  0x1c, 0xbd, 0xde, 0xcd, 0xf0, 0x26, 0x42, 0x20, 0xc9, 0x10, 0x21, 0xe2,
  0xc4, 0x11, 0xf8, 0xee, 0x14, 0xd8, 0xed, 0xd4, 0x08, 0x04, 0x10, 0x17,
  0xf6, 0x3b, 0x21, 0xd4, 0xf7, 0xf0, 0x1a, 0xea, 0xfc, 0xf7, 0xe8, 0x1f,
  0x16, 0x28, 0x29, 0xea, 0x32, 0x01, 0x0d, 0xed, 0xe1, 0x0a, 0xfb, 0xdc,
  0x26, 0x24, 0xfe, 0xfc, 0xae, 0xe7, 0x2f, 0x3c, 0xdf, 0xdd, 0xd6, 0x14,
  0xe3, 0xf3, 0xd5, 0x23, 0x23, 0xae, 0xe5, 0x27, 0x01, 0x2a, 0xf2, 0x2c,
  0x12, 0xf0, 0x2b, 0x05, 0x0d, 0x25, 0xdf, 0x28, 0x1a, 0xd9, 0x3c, 0x26,
  0x21, 0xf9, 0x2d, 0x15, 0xcc, 0x09, 0x55, 0xb1, 0xd2, 0x15, 0xa1, 0x07,
  0x22, 0xae, 0x34, 0x61, 0xd9, 0xfa, 0x36, 0x0e, 0xc3, 0xe3, 0x39, 0xc5,
  0xf3, 0x16, 0xc8, 0xf9, 0x51, 0xf8, 0xe2, 0x00, 0x01, 0x33, 0x33, 0xe3,
  0x0f, 0xfe, 0xfd, 0x10, 0xe4, 0x31, 0xda, 0x14, 0x1f, 0xf7, 0x1c, 0xf2,
  0xf9, 0x21, 0x17, 0x0e, 0xd5, 0xf8, 0x38, 0xe7, 0xec, 0x2a, 0x56, 0xfc,
  0xd2, 0xca, 0x20, 0x0e, 0xfa, 0x22, 0xe3, 0x11, 0xed, 0xfe, 0x25, 0xbc,
  0x07, 0x06, 0xbf, 0xcf, 0xf3, 0xd1, 0xfb, 0xfb, 0x06, 0xe7, 0xec, 0x10,
  0x40, 0xfa, 0xde, 0x1f, 0x03, 0x1a, 0xee, 0xfc, 0x19, 0xf1, 0x0b, 0xfd,
  0x0c, 0x29, 0xe1, 0xdb, 0xf3, 0xef, 0xf2, 0xf6, 0x0e, 0xd7, 0xf9, 0xe1,
  0xf6, 0x03, 0x04, 0x37, 0xcf, 0x02, 0x00, 0x0a, 0xd1, 0xd0, 0x1f, 0x39,
  0x0f, 0x04, 0x17, 0xe1, 0xf9, 0x09, 0x24, 0x42, 0x0e, 0x17, 0xd7, 0xde,
  0x23, 0x2b, 0x2f, 0xe4, 0x10, 0xc4, 0x17, 0x1c, 0xbc, 0xfe, 0xf1, 0xb7,
  0x18, 0xd9, 0x1e, 0xdb, 0xd2, 0x1f, 0xf1, 0x37, 0x2a, 0x08, 0x03, 0x2b,
  0x12, 0xe4, 0xfa, 0xf7, 0x55, 0xe2, 0x29, 0xf1, 0x19, 0x19, 0x00, 0xe7,
  0xf6, 0xec, 0xb6, 0xf3, 0xdc, 0x32, 0x0c, 0xf0, 0xe8, 0x1a, 0x26, 0x19,
  0x54, 0x18, 0x23, 0x11, 0x1c, 0xee, 0xc9, 0x24, 0x0a, 0x16, 0xf2, 0x09,
  0xfc, 0x0e, 0x21, 0x18, 0x2f, 0x30, 0x2d, 0x03, 0x2f, 0x29, 0xe7, 0xfc,
  0xe6, 0xf1, 0xe3, 0x2f, 0x5e, 0x36, 0x1c, 0x14, 0x05, 0xd4, 0xe3, 0xc4,
  0xe5, 0xc3, 0xd6, 0x16, 0xfe, 0x2e, 0xf9, 0xdd, 0xea, 0xe8, 0x03, 0x33,
  0x09, 0x0d, 0x4b, 0x36, 0xe6, 0x18, 0xe4, 0x29, 0xdf, 0x12, 0xab, 0x1b,
  0xf8, 0x2d, 0x3d, 0x3a, 0xe7, 0x39, 0x22, 0xc1, 0xf2, 0xe1, 0xf0, 0x2f,
  0xf6, 0xec, 0xe8, 0xfd, 0xcc, 0xd0, 0x46, 0x26, 0x1a, 0x3a, 0x23, 0xf9,
  0x12, 0x05, 0x11, 0x4d, 0x1f, 0x1e, 0xd5, 0xb4, 0x1c, 0x0f, 0x1d, 0x57,
  0x49, 0xe9, 0x03, 0x7f, 0xf0, 0x2f, 0x0b, 0xfc, 0xe2, 0x26, 0xed, 0xc4,
  0x0c, 0x01, 0x29, 0xec, 0xea, 0x03, 0xf5, 0x2f, 0xd9, 0xee, 0xe6, 0x06,
  0x12, 0xd5, 0x0c, 0x18, 0xcc, 0xf2, 0xf0, 0xe5, 0xda, 0x0f, 0x0a, 0xe4,
  0xbc, 0x23, 0x16, 0xfc, 0xfc, 0x90, 0xb5, 0xed, 0x08, 0x18, 0x07, 0xfc,
  0xe4, 0x04, 0x1a, 0xcd, 0xfd, 0x08, 0x10, 0xde, 0xf1, 0xd1, 0xea, 0xd1,
  0xf3, 0x06, 0x29, 0x10, 0x1d, 0x04, 0x12, 0xbe, 0xd3, 0x0b, 0xdd, 0xff,
  0x1b, 0xfe, 0xcd, 0x01, 0xeb, 0xec, 0x18, 0xe2, 0xe5, 0xf5, 0xff, 0xbc,
  0xf9, 0xe4, 0xf0, 0xfb, 0x05, 0xe8, 0xee, 0xd7, 0xf4, 0x09, 0xf8, 0xf6,
  0xff, 0x08, 0x14, 0xe8, 0x06, 0x12, 0x2e, 0x29, 0xe0, 0xf5, 0x02, 0x18,
  0xf0, 0x07, 0xf8, 0x0c, 0xcd, 0x0e, 0xe1, 0x22, 0xe5, 0x22, 0xf9, 0x2a,
  0xfc, 0xca, 0x0d, 0xe1, 0xf8, 0x0d, 0x1d, 0x02, 0xe2, 0x1e, 0x14, 0xf5,
  0xf3, 0x25, 0xed, 0x2d, 0x29, 0xe7, 0xf9, 0x24, 0x24, 0x1c, 0x1e, 0xe4,
  0x29, 0xe4, 0xf5, 0xcb, 0x29, 0xf3, 0x05, 0xf5, 0xd2, 0xfd, 0xf5, 0xd6,
  0xe6, 0x0a, 0xe1, 0x05, 0x1f, 0x09, 0x12, 0x81, 0x14, 0xfa, 0xcb, 0xe0,
  0xdc, 0xf8, 0xd8, 0xcc, 0x34, 0x04, 0xec, 0x05, 0xf0, 0xdc, 0xde, 0x01,
  0xf1, 0xf0, 0xd5, 0xeb, 0xe8, 0x14, 0x06, 0xde, 0x31, 0x0d, 0xef, 0xd4,
  0x27, 0x0e, 0x21, 0xf7, 0xfa, 0x07, 0xf8, 0xde, 0xe2, 0x0e, 0x26, 0x03,
  0xe4, 0x12, 0x11, 0x1c, 0xfd, 0x06, 0xe4, 0x17, 0xdd, 0x05, 0x0b, 0xf1,
  0x29, 0xc6, 0x1d, 0x12, 0x22, 0xec, 0xde, 0x11, 0x1f, 0xe8, 0xd8, 0x21,
  0x49, 0x11, 0x0f, 0x04, 0x0e, 0x15, 0x15, 0x03, 0x15, 0xe7, 0xe3, 0xea,
  0x0d, 0xd4, 0xdf, 0x38, 0x0e, 0xff, 0xee, 0xef, 0xa6, 0x22, 0xfe, 0xc8,
  0xf7, 0x03, 0xe2, 0xe9, 0xff, 0xce, 0xf6, 0x10, 0xfe, 0xf5, 0xf2, 0xd9,
  0x0a, 0x18, 0x01, 0x16, 0x24, 0xf2, 0x1d, 0x16, 0x13, 0x20, 0x22, 0x06,
  0xf0, 0xeb, 0xf2, 0xfb, 0x06, 0xfb, 0x25, 0x03, 0xd3, 0xe4, 0x19, 0x3e,
  0x26, 0xf7, 0xef, 0x08, 0x22, 0xf1, 0x11, 0x1b, 0x00, 0x16, 0xf4, 0xef,
  0xf9, 0x1a, 0xe3, 0x20, 0x10, 0xb8, 0xc4, 0x1d, 0x0e, 0x18, 0x0d, 0x0c,
  0x13, 0x17, 0x14, 0x35, 0xee, 0xfb, 0xe8, 0x10, 0xe2, 0xf8, 0x09, 0x06,
  0xff, 0xe6, 0xde, 0x19, 0xda, 0x0b, 0x15, 0xd2, 0x17, 0xe1, 0x04, 0x02,
  0xf8, 0x02, 0xfe, 0x03, 0x07, 0x1c, 0x18, 0xef, 0x00, 0x1e, 0x07, 0xe0,
  0x0a, 0xf7, 0xec, 0xf3, 0xe7, 0x06, 0xda, 0x02, 0x25, 0x21, 0x30, 0x1f,
  0xf4, 0xdd, 0xff, 0x14, 0x18, 0x01, 0xbe, 0xf5, 0x4a, 0xe2, 0xc9, 0x14,
  0x0e, 0xf5, 0x0c, 0xf9, 0x11, 0x59, 0x03, 0x02, 0x24, 0x0f, 0x03, 0xd2,
  0xf9, 0x0a, 0x24, 0xf6, 0xf0, 0xe6, 0x09, 0xe8, 0x15, 0x1b, 0x03, 0x12,
  0xe2, 0xef, 0x4d, 0x2a, 0x09, 0x63, 0x45, 0xfe, 0xc7, 0xf6, 0xc0, 0xf1,
  0x01, 0xfe, 0x0d, 0xe1, 0x20, 0x2c, 0x30, 0x2d, 0x13, 0x04, 0x28, 0x13,
  0x28, 0x35, 0xf3, 0x01, 0x0a, 0x29, 0xfc, 0x10, 0x05, 0xf1, 0xc7, 0x1c,
  0xf6, 0xd7, 0x9b, 0xf4, 0x38, 0xf2, 0xcb, 0x22, 0xd2, 0x21, 0x35, 0xca,
  0x28, 0xf8, 0x06, 0xe8, 0x16, 0xd4, 0x03, 0x06, 0x11, 0x15, 0xf2, 0xfe,
  0xfe, 0x2a, 0xe2, 0xb4, 0xf5, 0xf7, 0xcc, 0xf8, 0xde, 0x19, 0xfe, 0x1a,
  0x1f, 0x3d, 0xea, 0xee, 0xfc, 0x1a, 0x36, 0xce, 0x23, 0x15, 0xff, 0xf2,
  0xe1, 0x06, 0xea, 0x18, 0x0f, 0x0a, 0x20, 0x15, 0xf4, 0xf3, 0x0e, 0x1e,
  0xe1, 0x0a, 0xd4, 0x1e, 0x03, 0x0d, 0xb7, 0xe3, 0x0f, 0xef, 0xbe, 0xf8,
  0xd2, 0x34, 0xee, 0xa2, 0x06, 0x29, 0x21, 0x45, 0x14, 0xd7, 0xf3, 0x48,
  0x5c, 0x1d, 0xff, 0x24, 0xf9, 0x43, 0x07, 0xbe, 0xf1, 0xfb, 0x19, 0x19,
  0xe5, 0xe6, 0xa0, 0x48, 0xef, 0x12, 0x0b, 0x14, 0xcf, 0x05, 0xea, 0x9c,
  0xf8, 0x05, 0xe6, 0x29, 0x05, 0x1a, 0xfb, 0x16, 0xfc, 0xe9, 0xf9, 0xe4,
  0xcd, 0x2b, 0xe8, 0xdb, 0x35, 0xe7, 0x23, 0xee, 0x0d, 0xf2, 0x44, 0xd2,
  0xe1, 0x19, 0x3d, 0x16, 0xe3, 0xd9, 0xf6, 0x4e, 0x37, 0xeb, 0x05, 0x02,
  0x1a, 0xc9, 0x95, 0xf3, 0x26, 0x0c, 0xb5, 0x42, 0x13, 0x4c, 0xb6, 0xb9,
  0x42, 0x2c, 0xde, 0x09, 0x65, 0xed, 0xa3, 0x4c, 0x49, 0x45, 0x81, 0x5a,
  0xf7, 0x49, 0x02, 0xab, 0x2b, 0xf4, 0xe6, 0xdf, 0x3f, 0xc8, 0xad, 0xf8,
  0x05, 0xf8, 0xde, 0xfd, 0xf2, 0x0c, 0x35, 0xe3, 0xf7, 0x37, 0xda, 0x07,
  0xc7, 0x23, 0x27, 0xde, 0xd5, 0xdd, 0x0e, 0xdd, 0x1e, 0xfd, 0xfc, 0x11,
  0x13, 0x12, 0x13, 0x0b, 0x4d, 0x4b, 0x17, 0xcc, 0x0c, 0x34, 0xa5, 0x28,
  0x0a, 0xf8, 0xf0, 0x11, 0x68, 0x08, 0xb1, 0xf0, 0x01, 0x9c, 0xbf, 0xfd,
  0x3c, 0xf9, 0x84, 0x13, 0x3e, 0x1f, 0xca, 0x20, 0x15, 0x41, 0xd9, 0xc6,
  0x28, 0xc6, 0x22, 0xd7, 0x09, 0x08, 0x91, 0xcd, 0x00, 0x1d, 0xf3, 0xf8,
  0x31, 0x26, 0xf4, 0xce, 0x0a, 0x17, 0x20, 0xbb, 0xc6, 0x02, 0xe9, 0xeb,
  0x08, 0x1b, 0x0a, 0xc3, 0xf6, 0x17, 0xf3, 0x29, 0xdc, 0xf4, 0x0e, 0xe5,
  0x1c, 0xe7, 0xd0, 0x00, 0x1f, 0xe1, 0xf9, 0x0f, 0x1f, 0x43, 0xfb, 0x1c,
  0x18, 0xad, 0xcc, 0x6c, 0x32, 0x49, 0xf9, 0x23, 0xed, 0x49, 0xfe, 0x18,
  0xed, 0x02, 0x9f, 0x1e, 0x02, 0x91, 0xb9, 0xd4, 0xda, 0x23, 0xfb, 0x0f,
  0xe1, 0xdf, 0x25, 0xfa, 0x34, 0x41, 0x0b, 0xd2, 0xdc, 0x07, 0xb6, 0xda,
  0xd3, 0x2c, 0x16, 0x04, 0x12, 0xfc, 0x23, 0x37, 0xf5, 0x31, 0x2e, 0x1f,
  0xdf, 0x4c, 0x0a, 0xc2, 0xed, 0x1b, 0x21, 0xf5, 0x22, 0xdb, 0xdc, 0x01,
  0x14, 0xe6, 0x30, 0x4a, 0x0c, 0x3b, 0xaf, 0x01, 0x3b, 0x27, 0x1d, 0x23,
  0x43, 0xff, 0x42, 0x27, 0x08, 0x11, 0x04, 0x43, 0xe7, 0xf7, 0xd9, 0xfb,
  0x17, 0x2b, 0x36, 0xec, 0xc1, 0x17, 0xf7, 0xf8, 0xfe, 0xe4, 0xe4, 0x15,
  0x21, 0xe6, 0x17, 0xe7, 0x13, 0xe1, 0x0b, 0xe3, 0x0f, 0x4f, 0x15, 0x49,
  0x2f, 0xe3, 0xf0, 0xe7, 0x1b, 0x15, 0xdb, 0xd9, 0x05, 0xf3, 0xfa, 0x0c,
  0x23, 0x17, 0x01, 0x25, 0x0e, 0x05, 0xfc, 0x0f, 0x35, 0x14, 0xd2, 0xf2,
  0x3b, 0xfe, 0x3f, 0x05, 0x04, 0x28, 0x30, 0xfe, 0xdf, 0xcd, 0x0d, 0xea,
  0xf2, 0xe3, 0xdb, 0xf6, 0x0b, 0x23, 0x0d, 0x00, 0xf3, 0xf0, 0x0f, 0x0f,
  0x08, 0x11, 0x0a, 0xec, 0xe2, 0xd4, 0xcb, 0xb3, 0x03, 0xe1, 0x1b, 0xdb,
  0x00, 0xe3, 0xe6, 0x15, 0x17, 0x19, 0xe0, 0xcd, 0x2f, 0xe1, 0x26, 0x15,
  0x01, 0xd6, 0xf6, 0xdf, 0x1c, 0x12, 0xe9, 0xf0, 0xd8, 0xe2, 0xf2, 0xf3,
  0xeb, 0x2c, 0x1d, 0xdd, 0xec, 0x03, 0x6b, 0xdc, 0x29, 0xd8, 0x31, 0x26,
  0xdd, 0xf4, 0xde, 0x21, 0xe4, 0x23, 0xe5, 0x0e, 0x41, 0x0a, 0x65, 0xd6,
  0x29, 0xdf, 0xfa, 0x29, 0x1a, 0xfb, 0x11, 0x17, 0x12, 0x0e, 0x48, 0x15,
  0x0a, 0xfd, 0x3f, 0x0f, 0x34, 0xe7, 0x05, 0x21, 0x1a, 0xe8, 0x00, 0xf6,
  0x04, 0x38, 0x05, 0xbe, 0x1c, 0xee, 0x1d, 0x0c, 0xf2, 0xd9, 0xe1, 0x23,
  0xe8, 0xdc, 0x2e, 0x24, 0xd6, 0x4d, 0x2e, 0x03, 0x06, 0xec, 0x53, 0xca,
  0xcc, 0xbe, 0x0a, 0xde, 0xe4, 0xc0, 0x10, 0x28, 0xd1, 0x3f, 0x2b, 0xf2,
  0xe1, 0xea, 0x7f, 0xe0, 0xfe, 0x9f, 0x15, 0xf9, 0xcb, 0xc9, 0xec, 0xe4,
  0xc8, 0xdb, 0xb1, 0x5b, 0xfe, 0x16, 0x21, 0x1a, 0x03, 0x33, 0x1c, 0xc0,
  0x21, 0x05, 0xd3, 0xd6, 0xf8, 0x12, 0x16, 0x3f, 0x04, 0x22, 0x12, 0x0b,
  0xf0, 0xfe, 0xf9, 0x10, 0x03, 0xde, 0x1e, 0xe3, 0xf7, 0x1d, 0xf4, 0xdc,
  0xf7, 0xe2, 0xc7, 0xcb, 0xb1, 0x10, 0xfc, 0xf7, 0x06, 0xde, 0xea, 0x19,
  0xf9, 0x0d, 0xe8, 0x26, 0x30, 0xf4, 0x17, 0x34, 0x19, 0x12, 0xf7, 0xe4,
  0x2e, 0xe8, 0x0c, 0x25, 0xc1, 0xd1, 0xa5, 0x29, 0x02, 0x0a, 0x32, 0x17,
  0xf4, 0xe8, 0x0c, 0xf0, 0x0a, 0x11, 0x0c, 0x33, 0x04, 0xe1, 0xd9, 0x10,
  0x09, 0x08, 0x20, 0x31, 0xe3, 0x21, 0x0a, 0xdc, 0x23, 0x1f, 0xef, 0xfc,
  0x0b, 0x17, 0xd6, 0x21, 0xe6, 0xe5, 0xe6, 0x34, 0xcd, 0x20, 0x14, 0xe3,
  0xc6, 0x17, 0xf5, 0x29, 0x09, 0x1e, 0xdb, 0x32, 0x07, 0xeb, 0x3d, 0x3c,
  0x1d, 0xef, 0x23, 0x2a, 0xfd, 0x1e, 0x26, 0x34, 0x17, 0x0d, 0xeb, 0xee,
  0x7d, 0xee, 0x1c, 0xe0, 0xd5, 0x2c, 0x00, 0x1f, 0x0d, 0x12, 0xfa, 0xeb,
  0xb9, 0x01, 0xf2, 0xe7, 0x44, 0x43, 0x0f, 0xe8, 0x19, 0x35, 0x17, 0x12,
  0x28, 0x0a, 0xf2, 0xe7, 0xff, 0x1b, 0x17, 0x2a, 0x38, 0x03, 0x3d, 0xfc,
  0x08, 0xee, 0xf5, 0x18, 0xf0, 0x0a, 0x0b, 0xc9, 0x1d, 0x39, 0x33, 0xa3,
  0x08, 0xfc, 0x55, 0x01, 0x0a, 0xfb, 0x13, 0x44, 0x06, 0x1c, 0x02, 0xf3,
  0xda, 0x57, 0x26, 0xb0, 0xe4, 0x18, 0x14, 0xbb, 0x26, 0xb9, 0xf4, 0x2c,
  0x25, 0x18, 0xf3, 0x03, 0x22, 0x23, 0x44, 0xff, 0xdd, 0xf0, 0xde, 0x35,
  0x05, 0xe8, 0x31, 0xfb, 0x2a, 0xed, 0x37, 0x0b, 0x16, 0x02, 0x3c, 0xf2,
  0x9b, 0xdd, 0xfe, 0xf4, 0x31, 0xe5, 0xd6, 0x17, 0x26, 0x30, 0x06, 0x02,
  0x20, 0x3c, 0x09, 0xce, 0xc3, 0xf5, 0xd7, 0xf4, 0x08, 0xe3, 0x01, 0x10,
  0x1f, 0x0c, 0x28, 0x2b, 0x2c, 0x1c, 0x0d, 0xd4, 0x11, 0xd2, 0x95, 0x31,
  0xd8, 0xf8, 0xf9, 0xf8, 0x20, 0x0c, 0x0f, 0x2d, 0x0a, 0x3d, 0x19, 0xe0,
  0xec, 0xf0, 0xa9, 0x04, 0x9f, 0xfd, 0x1b, 0x8e, 0x54, 0x0d, 0x41, 0xef,
  0x1f, 0x2b, 0x0e, 0xe6, 0xd3, 0x00, 0x29, 0x09, 0x1a, 0xea, 0x2c, 0x3e,
  0xec, 0x04, 0xea, 0x16, 0x26, 0x04, 0x26, 0xee, 0x00, 0xdc, 0x31, 0xe9,
  0x1e, 0xce, 0x13, 0x19, 0xea, 0x0b, 0x37, 0x0b, 0x04, 0x30, 0xec, 0xe5,
  0x1e, 0x07, 0x36, 0x17, 0x1a, 0xeb, 0xce, 0x2e, 0x2f, 0x23, 0x29, 0x46,
  0x21, 0xf7, 0xd2, 0x2b, 0x00, 0x0e, 0xfd, 0x08, 0xde, 0x3e, 0x17, 0x0b,
  0x38, 0xfc, 0x0d, 0xf2, 0x38, 0x30, 0xdf, 0xf4, 0x28, 0xf1, 0xe5, 0x3c,
  0xca, 0x30, 0x09, 0xb6, 0xd4, 0xf3, 0x13, 0xeb, 0xfa, 0xf4, 0xf0, 0x00,
  0x1e, 0x1d, 0xf7, 0x0a, 0x05, 0xfe, 0xf6, 0x28, 0x02, 0xfd, 0xf5, 0xf1,
  0xf3, 0xf4, 0xfe, 0x1c, 0x11, 0xf3, 0x0d, 0xeb, 0xec, 0x1d, 0x08, 0xff,
  0xbf, 0x10, 0xcf, 0xf9, 0xeb, 0xe6, 0xb7, 0x10, 0x1a, 0x0d, 0x1e, 0xf3,
  0x38, 0xf7, 0xfe, 0x20, 0x22, 0x21, 0xea, 0x0d, 0x0d, 0xeb, 0xf1, 0x1e,
  0x09, 0x1d, 0x1d, 0xf8, 0xe1, 0x53, 0x33, 0x23, 0x41, 0x34, 0xed, 0xff,
  0xe9, 0xd6, 0xcf, 0x47, 0xf3, 0x24, 0x1c, 0x23, 0xff, 0x3a, 0x2e, 0xd5,
  0xfd, 0xe4, 0xe0, 0x09, 0x3d, 0x06, 0x0b, 0xe1, 0x33, 0xee, 0x24, 0xd2,
  0xe6, 0x33, 0x0a, 0x2a, 0x16, 0xf7, 0xef, 0xed, 0x3d, 0x18, 0x13, 0x09,
  0x05, 0xff, 0x34, 0x02, 0x1e, 0x1e, 0xe5, 0x0d, 0xcb, 0x13, 0xd2, 0x32,
  0xff, 0xe8, 0xe9, 0x04, 0x1f, 0xfa, 0x31, 0xeb, 0x0c, 0xfd, 0xfc, 0x37,
  0x30, 0xfe, 0x10, 0x3c, 0xe2, 0xed, 0xbb, 0x42, 0x19, 0x1e, 0x23, 0x2c,
  0xea, 0x0c, 0xf7, 0xf4, 0x03, 0xe6, 0xe2, 0xfe, 0xe1, 0xe3, 0xd8, 0x3b,
  0x19, 0x0f, 0x31, 0xe2, 0xd8, 0x01, 0x1c, 0x00, 0x03, 0xee, 0x2a, 0x0c,
  0x07, 0x3d, 0x43, 0xef, 0xdd, 0xe4, 0x1b, 0x27, 0xe5, 0xfd, 0x04, 0xba,
  0xb9, 0xc7, 0x05, 0xc9, 0x14, 0x30, 0xfb, 0x00, 0x29, 0xfe, 0x0b, 0xe6,
  0xba, 0xe6, 0x0e, 0xed, 0xd3, 0xff, 0xda, 0x16, 0x52, 0xd9, 0x81, 0x31,
  0x20, 0xf4, 0xb2, 0xf0, 0xfe, 0x32, 0xe8, 0x07, 0xff, 0xd3, 0xcf, 0xfa,
  0x1f, 0xe4, 0xe9, 0x5c, 0x1f, 0x1a, 0xf2, 0xea, 0xf8, 0xf9, 0x28, 0xfa,
  0x05, 0xe9, 0xde, 0x0c, 0x0a, 0xca, 0xae, 0xf5, 0x0d, 0x0e, 0xe5, 0xf4,
  0xbc, 0x28, 0xdf, 0xdc, 0xac, 0x07, 0x09, 0xda, 0xd7, 0x01, 0x02, 0x13,
  0xb1, 0xf8, 0x45, 0xd6, 0xc2, 0xb5, 0xfe, 0x11, 0xba, 0xe3, 0xdf, 0x38,
  0xb6, 0xe5, 0x16, 0x1d, 0xc3, 0x02, 0x3c, 0x12, 0xe5, 0x81, 0xe5, 0x1c,
  0xe1, 0x38, 0x0a, 0x36, 0xd1, 0xf9, 0x25, 0xd8, 0xdf, 0x1f, 0xde, 0xe3,
  0xf7, 0xf9, 0xd3, 0x28, 0xfd, 0x1a, 0x2a, 0x0b, 0x1f, 0x22, 0x1c, 0xbf,
  0xe4, 0xd5, 0x3e, 0xf1, 0x25, 0xf4, 0xa9, 0x13, 0xe6, 0x31, 0x29, 0x11,
  0xf9, 0xe7, 0x27, 0x9d, 0xea, 0x04, 0xc8, 0xee, 0x1c, 0xcb, 0x03, 0x0d,
  0xd0, 0x1c, 0x23, 0x0a, 0x90, 0xf2, 0xc5, 0xf7, 0xf7, 0xd9, 0xf9, 0x3b,
  0x20, 0xd3, 0xec, 0xfb, 0xdf, 0xec, 0xf5, 0x1d, 0xc8, 0x1a, 0xe3, 0xed,
  0x3c, 0x2a, 0xd7, 0x14, 0x00, 0x20, 0x08, 0xe9, 0x41, 0x10, 0x2d, 0x1f,
  0xd6, 0x27, 0x0f, 0xce, 0xdd, 0x2c, 0xeb, 0xf2, 0xfb, 0xd5, 0xfd, 0x06,
  0x00, 0xfc, 0xee, 0xe8, 0xd8, 0xc3, 0x2d, 0xc5, 0xde, 0x1b, 0xf5, 0x02,
  0x23, 0xff, 0x14, 0x2b, 0x28, 0x29, 0xdd, 0xc0, 0xe3, 0xf5, 0x2f, 0xb0,
  0xe9, 0x02, 0x8b, 0x0c, 0x30, 0xf9, 0xe6, 0x04, 0x1d, 0x1a, 0xe8, 0xf0,
  0xf9, 0x26, 0x3c, 0x3e, 0xc7, 0x1e, 0xd8, 0xfc, 0x1e, 0xf0, 0x34, 0x05,
  0x54, 0x0b, 0x03, 0xe4, 0xe0, 0xef, 0x31, 0xda, 0xe9, 0x0a, 0xd3, 0x07,
  0x09, 0x00, 0xfc, 0x00, 0x20, 0x32, 0x0b, 0xc2, 0x1d, 0x26, 0x59, 0xb8,
  0x16, 0xd0, 0xc8, 0xff, 0xe2, 0x08, 0xc3, 0x02, 0x11, 0xde, 0x0b, 0xf8,
  0xfc, 0xd1, 0x12, 0xfa, 0xf8, 0x27, 0xf1, 0xe2, 0x1e, 0x21, 0xda, 0x09,
  0xf8, 0x1b, 0xc6, 0x27, 0x30, 0xfb, 0xf9, 0x7a, 0x1b, 0x23, 0x03, 0x10,
  0xfd, 0x10, 0x0c, 0xf1, 0xfe, 0xee, 0x3a, 0x0e, 0xb4, 0x20, 0xef, 0xec,
  0xd8, 0x2a, 0xfd, 0x16, 0xf0, 0x07, 0x22, 0x11, 0xee, 0x0a, 0x43, 0x3e,
  0xef, 0x05, 0x04, 0x15, 0xc4, 0xfd, 0x05, 0xed, 0xce, 0xa9, 0x2d, 0xcc,
  0x1c, 0xf4, 0x0c, 0xf4, 0x07, 0xfd, 0x01, 0x13, 0x1e, 0xec, 0x0b, 0xfd,
  0xe0, 0x1a, 0x28, 0x03, 0x2e, 0x1c, 0xd9, 0x12, 0x20, 0xd6, 0x00, 0x19,
  0xf4, 0x0b, 0xfd, 0x0e, 0xd8, 0x13, 0x0e, 0xf9, 0xfd, 0x11, 0xe6, 0x00,
  0xf0, 0xde, 0xec, 0xed, 0xc4, 0x15, 0x02, 0x1e, 0xe4, 0x05, 0x04, 0x04,
  0x11, 0xfa, 0xd3, 0xe1, 0xfa, 0xb2, 0x96, 0xd7, 0x42, 0x3a, 0xce, 0x14,
  0x04, 0x1e, 0xdf, 0x3e, 0x1a, 0x0a, 0x0a, 0x06, 0x19, 0x1f, 0x20, 0x26,
  0xf5, 0xf6, 0xfe, 0x0d, 0x0b, 0x1f, 0x08, 0x07, 0x34, 0x16, 0xf0, 0xe2,
  0xe1, 0x21, 0x2e, 0xf4, 0xfa, 0x09, 0x18, 0x0b, 0xe4, 0xd7, 0xe6, 0x2f,
  0xd1, 0x05, 0x45, 0x0a, 0xe5, 0x19, 0x37, 0xe4, 0xf3, 0xf8, 0xee, 0xe5,
  0x02, 0x15, 0x11, 0x0f, 0xe3, 0x14, 0x2e, 0x08, 0x29, 0x7a, 0x53, 0x0c,
  0xce, 0x04, 0x0d, 0x33, 0x4b, 0xf7, 0x13, 0x23, 0x4a, 0xfd, 0xff, 0xff,
  0x04, 0x00, 0x00, 0x00, 0x80, 0x00, 0x00, 0x00, 0x62, 0x00, 0x00, 0x00,
  0x2b, 0xfc, 0xff, 0xff, 0x88, 0x00, 0x00, 0x00, 0x4b, 0x00, 0x00, 0x00,
  0xaf, 0x00, 0x00, 0x00, 0x8b, 0xfe, 0xff, 0xff, 0xfe, 0xfd, 0xff, 0xff,
  0x60, 0x01, 0x00, 0x00, 0x7c, 0x03, 0x00, 0x00, 0xc3, 0x02, 0x00, 0x00,
  0x61, 0x00, 0x00, 0x00, 0xfa, 0xff, 0xff, 0xff, 0xd1, 0xff, 0xff, 0xff,
  0xe0, 0x01, 0x00, 0x00, 0xcd, 0xfc, 0xff, 0xff, 0xfc, 0x00, 0x00, 0x00,
  0x9d, 0xfc, 0xff, 0xff, 0x8b, 0x02, 0x00, 0x00, 0x07, 0xff, 0xff, 0xff,
  0x5a, 0xfe, 0xff, 0xff, 0x09, 0x01, 0x00, 0x00, 0xec, 0x00, 0x00, 0x00,
  0xc1, 0x02, 0x00, 0x00, 0xfe, 0xfd, 0xff, 0xff, 0xbd, 0xfe, 0xff, 0xff,
  0x12, 0xff, 0xff, 0xff, 0x35, 0x02, 0x00, 0x00, 0xae, 0x02, 0x00, 0x00,
  0x4a, 0xff, 0xff, 0xff, 0x87, 0x01, 0x00, 0x00, 0x5a, 0x01, 0x00, 0x00,
  0x05, 0x03, 0x00, 0x00, 0xd6, 0xfd, 0xff, 0xff, 0x04, 0x00, 0x00, 0x00,
  0x40, 0x01, 0x00, 0x00, 0x3b, 0x3a, 0xd0, 0xec, 0x12, 0xea, 0x4c, 0x13,
  0x04, 0x5c, 0x91, 0x36, 0x12, 0xff, 0x06, 0xc1, 0x0a, 0x5d, 0xf4, 0xc2,
  0x2d, 0x44, 0x81, 0x5b, 0x54, 0x42, 0x55, 0xe7, 0x72, 0x35, 0xcd, 0x33,
  0x0d, 0x35, 0xee, 0x1b, 0xbd, 0x4e, 0xd2, 0x6d, 0xae, 0xbf, 0x0c, 0x34,
  0x65, 0xb1, 0x7f, 0xe1, 0x9b, 0xc7, 0xfe, 0x52, 0x39, 0x6a, 0x11, 0xdf,
  0xaa, 0x39, 0xe7, 0x1c, 0xc9, 0x30, 0x31, 0xe2, 0xcd, 0xea, 0xb2, 0xd6,
  0x7a, 0x4b, 0xa3, 0x84, 0xb3, 0xcd, 0x17, 0x47, 0x1b, 0x28, 0xcf, 0x31,
  0xfc, 0x15, 0xd1, 0xd1, 0xb0, 0xaf, 0x0c, 0xeb, 0x27, 0x66, 0xfb, 0x15,
  0x90, 0x7f, 0x97, 0x4f, 0x23, 0x44, 0xa8, 0x87, 0x7f, 0x83, 0x20, 0xaa,
  0x1c, 0x07, 0x58, 0xbe, 0xee, 0x28, 0xec, 0x15, 0xdf, 0xac, 0x5f, 0x95,
  0x5a, 0xfe, 0x7d, 0x1c, 0x4e, 0x36, 0x1e, 0xa5, 0x10, 0xe1, 0xfd, 0xd7,
  0xe4, 0xc4, 0x37, 0x60, 0xd9, 0x64, 0x9f, 0xef, 0xb1, 0xa5, 0x6c, 0x2b,
  0x38, 0x50, 0x00, 0xa5, 0x27, 0xf4, 0xac, 0x0a, 0xc3, 0xae, 0xbb, 0xf6,
  0xcd, 0x28, 0xb1, 0xde, 0x24, 0x81, 0x05, 0xd2, 0x74, 0x08, 0x46, 0xe9,
  0xd8, 0xd9, 0xdf, 0x52, 0x53, 0xf0, 0x41, 0x59, 0xc8, 0x10, 0x53, 0xa1,
  0x42, 0x2b, 0x29, 0x1f, 0xc4, 0x81, 0x60, 0x0b, 0xa8, 0x9a, 0x31, 0xd9,
  0xf8, 0x2e, 0x83, 0x26, 0x55, 0xef, 0x74, 0x42, 0xd2, 0x13, 0xd2, 0xc9,
  0x4b, 0xe5, 0x8b, 0x31, 0x34, 0xa8, 0xc0, 0x1a, 0x4d, 0xf5, 0x4d, 0xfa,
  0xe9, 0xd4, 0x25, 0x18, 0x30, 0x3b, 0xc4, 0x97, 0x6f, 0x4d, 0x81, 0xb9,
  0x63, 0xba, 0x0b, 0x9a, 0xc0, 0x6d, 0xb7, 0xe3, 0x28, 0xdb, 0xb2, 0xcf,
  0x28, 0x31, 0x7f, 0x2e, 0xb1, 0xeb, 0x06, 0xc2, 0xc2, 0xc1, 0xb4, 0xf8,
  0xb4, 0xc7, 0xff, 0xfd, 0xf4, 0x4e, 0x79, 0x96, 0x4d, 0xfc, 0xae, 0x16,
  0xe2, 0x43, 0xc0, 0x2f, 0x4d, 0x27, 0xd8, 0x99, 0xe6, 0xed, 0xf6, 0x1c,
  0xa8, 0xde, 0x3c, 0xd1, 0x81, 0xed, 0x52, 0x49, 0xae, 0x4c, 0x4a, 0xe1,
  0xce, 0x9f, 0xc3, 0x2f, 0xdd, 0xd3, 0xd7, 0x33, 0xc9, 0x99, 0xf5, 0xc7,
  0x28, 0xe9, 0xca, 0x35, 0x19, 0x3b, 0x39, 0xa1, 0x48, 0x64, 0xdb, 0xf6,
  0x31, 0x07, 0x3f, 0xa8, 0x16, 0xb0, 0xea, 0x7f, 0x33, 0xa9, 0x31, 0x3c,
  0x22, 0xff, 0xff, 0xff, 0x04, 0x00, 0x00, 0x00, 0x28, 0x00, 0x00, 0x00,
  0x71, 0xff, 0xff, 0xff, 0x52, 0xff, 0xff, 0xff, 0x28, 0x00, 0x00, 0x00,
  0xd2, 0xff, 0xff, 0xff, 0x29, 0x00, 0x00, 0x00, 0x03, 0x00, 0x00, 0x00,
  0x05, 0x00, 0x00, 0x00, 0x41, 0x00, 0x00, 0x00, 0x72, 0x00, 0x00, 0x00,
  0x46, 0x00, 0x00, 0x00, 0x56, 0xff, 0xff, 0xff, 0x04, 0x00, 0x00, 0x00,
  0x08, 0x00, 0x00, 0x00, 0xff, 0xff, 0xff, 0xff, 0x90, 0x01, 0x00, 0x00,
  0xb0, 0xee, 0xff, 0xff, 0xb4, 0xee, 0xff, 0xff, 0x0f, 0x00, 0x00, 0x00,
  0x4d, 0x4c, 0x49, 0x52, 0x20, 0x43, 0x6f, 0x6e, 0x76, 0x65, 0x72, 0x74,
  0x65, 0x64, 0x2e, 0x00, 0x01, 0x00, 0x00, 0x00, 0x14, 0x00, 0x00, 0x00,
  0x00, 0x00, 0x0e, 0x00, 0x18, 0x00, 0x14, 0x00, 0x10, 0x00, 0x0c, 0x00,
  0x08, 0x00, 0x04, 0x00, 0x0e, 0x00, 0x00, 0x00, 0x14, 0x00, 0x00, 0x00,
  0x1c, 0x00, 0x00, 0x00, 0x64, 0x02, 0x00, 0x00, 0x68, 0x02, 0x00, 0x00,
  0x6c, 0x02, 0x00, 0x00, 0x04, 0x00, 0x00, 0x00, 0x6d, 0x61, 0x69, 0x6e,
  0x00, 0x00, 0x00, 0x00, 0x08, 0x00, 0x00, 0x00, 0xfc, 0x01, 0x00, 0x00,
  0x98, 0x01, 0x00, 0x00, 0x44, 0x01, 0x00, 0x00, 0x00, 0x01, 0x00, 0x00,
  0xc8, 0x00, 0x00, 0x00, 0x78, 0x00, 0x00, 0x00, 0x40, 0x00, 0x00, 0x00,
  0x04, 0x00, 0x00, 0x00, 0x92, 0xfe, 0xff, 0xff, 0x1c, 0x00, 0x00, 0x00,
  0x00, 0x00, 0x00, 0x09, 0x1c, 0x00, 0x00, 0x00, 0x20, 0x00, 0x00, 0x00,
  0x04, 0x00, 0x00, 0x00, 0x00, 0x00, 0x06, 0x00, 0x08, 0x00, 0x04, 0x00,
  0x06, 0x00, 0x00, 0x00, 0x00, 0x00, 0x80, 0x3f, 0x01, 0x00, 0x00, 0x00,
  0x11, 0x00, 0x00, 0x00, 0x01, 0x00, 0x00, 0x00, 0x10, 0x00, 0x00, 0x00,
  0x5a, 0xff, 0xff, 0xff, 0x14, 0x00, 0x00, 0x00, 0x00, 0x00, 0x00, 0x08,
  0x10, 0x00, 0x00, 0x00, 0x14, 0x00, 0x00, 0x00, 0x03, 0x00, 0x00, 0x00,
  0x7c, 0xef, 0xff, 0xff, 0x01, 0x00, 0x00, 0x00, 0x10, 0x00, 0x00, 0x00,
  0x03, 0x00, 0x00, 0x00, 0x0f, 0x00, 0x00, 0x00, 0x03, 0x00, 0x00, 0x00,
  0x02, 0x00, 0x00, 0x00, 0xfe, 0xfe, 0xff, 0xff, 0x1c, 0x00, 0x00, 0x00,
  0x00, 0x00, 0x00, 0x08, 0x1c, 0x00, 0x00, 0x00, 0x20, 0x00, 0x00, 0x00,
  0x03, 0x00, 0x00, 0x00, 0x00, 0x00, 0x06, 0x00, 0x08, 0x00, 0x07, 0x00,
  0x06, 0x00, 0x00, 0x00, 0x00, 0x00, 0x00, 0x01, 0x01, 0x00, 0x00, 0x00,
  0x0f, 0x00, 0x00, 0x00, 0x03, 0x00, 0x00, 0x00, 0x0e, 0x00, 0x00, 0x00,
  0x05, 0x00, 0x00, 0x00, 0x04, 0x00, 0x00, 0x00, 0x00, 0x00, 0x0a, 0x00,
  0x10, 0x00, 0x0c, 0x00, 0x08, 0x00, 0x04, 0x00, 0x0a, 0x00, 0x00, 0x00,
  0x0c, 0x00, 0x00, 0x00, 0x10, 0x00, 0x00, 0x00, 0x02, 0x00, 0x00, 0x00,
  0x01, 0x00, 0x00, 0x00, 0x0e, 0x00, 0x00, 0x00, 0x02, 0x00, 0x00, 0x00,
  0x0d, 0x00, 0x00, 0x00, 0x01, 0x00, 0x00, 0x00, 0x00, 0x00, 0x0e, 0x00,
  0x18, 0x00, 0x14, 0x00, 0x10, 0x00, 0x0c, 0x00, 0x0b, 0x00, 0x04, 0x00,
  0x0e, 0x00, 0x00, 0x00, 0x14, 0x00, 0x00, 0x00, 0x00, 0x00, 0x00, 0x05,
  0x24, 0x00, 0x00, 0x00, 0x28, 0x00, 0x00, 0x00, 0x01, 0x00, 0x00, 0x00,
  0x6e, 0xff, 0xff, 0xff, 0x02, 0x00, 0x00, 0x00, 0x02, 0x00, 0x00, 0x00,
  0x02, 0x00, 0x00, 0x00, 0x02, 0x00, 0x00, 0x00, 0x00, 0x00, 0x00, 0x01,
  0x01, 0x00, 0x00, 0x00, 0x0d, 0x00, 0x00, 0x00, 0x01, 0x00, 0x00, 0x00,
  0x0c, 0x00, 0x00, 0x00, 0x5e, 0xff, 0xff, 0xff, 0x10, 0x00, 0x00, 0x00,
  0x00, 0x00, 0x00, 0x01, 0x1c, 0x00, 0x00, 0x00, 0x20, 0x00, 0x00, 0x00,
  0x50, 0xff, 0xff, 0xff, 0x00, 0x00, 0x00, 0x01, 0x01, 0x00, 0x00, 0x00,
  0x01, 0x00, 0x00, 0x00, 0x00, 0x00, 0x00, 0x01, 0x01, 0x00, 0x00, 0x00,
  0x0c, 0x00, 0x00, 0x00, 0x03, 0x00, 0x00, 0x00, 0x0b, 0x00, 0x00, 0x00,
  0x07, 0x00, 0x00, 0x00, 0x06, 0x00, 0x00, 0x00, 0x00, 0x00, 0x0e, 0x00,
  0x1a, 0x00, 0x14, 0x00, 0x10, 0x00, 0x0c, 0x00, 0x0b, 0x00, 0x04, 0x00,
  0x0e, 0x00, 0x00, 0x00, 0x24, 0x00, 0x00, 0x00, 0x00, 0x00, 0x00, 0x05,
  0x34, 0x00, 0x00, 0x00, 0x38, 0x00, 0x00, 0x00, 0x01, 0x00, 0x00, 0x00,
  0x00, 0x00, 0x0e, 0x00, 0x18, 0x00, 0x17, 0x00, 0x10, 0x00, 0x0c, 0x00,
  0x08, 0x00, 0x04, 0x00, 0x0e, 0x00, 0x00, 0x00, 0x02, 0x00, 0x00, 0x00,
  0x02, 0x00, 0x00, 0x00, 0x02, 0x00, 0x00, 0x00, 0x02, 0x00, 0x00, 0x00,
  0x00, 0x00, 0x00, 0x01, 0x01, 0x00, 0x00, 0x00, 0x0b, 0x00, 0x00, 0x00,
  0x01, 0x00, 0x00, 0x00, 0x0a, 0x00, 0x00, 0x00, 0x00, 0x00, 0x0e, 0x00,
  0x14, 0x00, 0x00, 0x00, 0x10, 0x00, 0x0c, 0x00, 0x0b, 0x00, 0x04, 0x00,
  0x0e, 0x00, 0x00, 0x00, 0x1c, 0x00, 0x00, 0x00, 0x00, 0x00, 0x00, 0x01,
  0x28, 0x00, 0x00, 0x00, 0x2c, 0x00, 0x00, 0x00, 0x0c, 0x00, 0x14, 0x00,
  0x13, 0x00, 0x0c, 0x00, 0x08, 0x00, 0x07, 0x00, 0x0c, 0x00, 0x00, 0x00,
  0x00, 0x00, 0x00, 0x01, 0x01, 0x00, 0x00, 0x00, 0x01, 0x00, 0x00, 0x00,
  0x00, 0x00, 0x00, 0x01, 0x01, 0x00, 0x00, 0x00, 0x0a, 0x00, 0x00, 0x00,
  0x03, 0x00, 0x00, 0x00, 0x00, 0x00, 0x00, 0x00, 0x09, 0x00, 0x00, 0x00,
  0x08, 0x00, 0x00, 0x00, 0x01, 0x00, 0x00, 0x00, 0x11, 0x00, 0x00, 0x00,
  0x01, 0x00, 0x00, 0x00, 0x00, 0x00, 0x00, 0x00, 0x12, 0x00, 0x00, 0x00,
  0xd4, 0x0e, 0x00, 0x00, 0x78, 0x0e, 0x00, 0x00, 0x90, 0x0d, 0x00, 0x00,
  0xbc, 0x0c, 0x00, 0x00, 0xe8, 0x0a, 0x00, 0x00, 0x0c, 0x09, 0x00, 0x00,
  0xf8, 0x07, 0x00, 0x00, 0xd4, 0x06, 0x00, 0x00, 0x20, 0x06, 0x00, 0x00,
  0x5c, 0x05, 0x00, 0x00, 0x88, 0x04, 0x00, 0x00, 0xec, 0x03, 0x00, 0x00,
  0xf8, 0x02, 0x00, 0x00, 0x5c, 0x02, 0x00, 0x00, 0xd8, 0x01, 0x00, 0x00,
  0x24, 0x01, 0x00, 0x00, 0x80, 0x00, 0x00, 0x00, 0x04, 0x00, 0x00, 0x00,
  0x8a, 0xf1, 0xff, 0xff, 0x00, 0x00, 0x00, 0x01, 0x18, 0x00, 0x00, 0x00,
  0x20, 0x00, 0x00, 0x00, 0x3c, 0x00, 0x00, 0x00, 0x12, 0x00, 0x00, 0x00,
  0x00, 0x00, 0x00, 0x09, 0x50, 0x00, 0x00, 0x00, 0x02, 0x00, 0x00, 0x00,
  0xff, 0xff, 0xff, 0xff, 0x0a, 0x00, 0x00, 0x00, 0x6c, 0xf1, 0xff, 0xff,
  0x08, 0x00, 0x00, 0x00, 0x10, 0x00, 0x00, 0x00, 0x01, 0x00, 0x00, 0x00,
  0x80, 0xff, 0xff, 0xff, 0xff, 0xff, 0xff, 0xff, 0x01, 0x00, 0x00, 0x00,
  0x00, 0x00, 0x80, 0x3b, 0x1b, 0x00, 0x00, 0x00, 0x53, 0x74, 0x61, 0x74,
  0x65, 0x66, 0x75, 0x6c, 0x50, 0x61, 0x72, 0x74, 0x69, 0x74, 0x69, 0x6f,
  0x6e, 0x65, 0x64, 0x43, 0x61, 0x6c, 0x6c, 0x5f, 0x31, 0x3a, 0x30, 0x00,
